{
  "<pad>": 0,
  "<unk>": 1,
  "<sos>": 2,
  "<eos>": 3,
  "</": 4,
  "</w": 5,
  "</w>": 6,
  "ے</w>": 7,
  "ha": 8,
  "i</w>": 9,
  "e</w>": 10,
  "n</w>": 11,
  "a</w>": 12,
  "ں</w>": 13,
  "ا</w>": 14,
  "ی</w>": 15,
  "ar": 16,
  "ر</w>": 17,
  "ہ</w>": 18,
  "یں</w>": 19,
  "و</w>": 20,
  "o</w>": 21,
  "e-": 22,
  "-e-": 23,
  "aa": 24,
  "ah": 25,
  "ہے</w>": 26,
  "in</w>": 27,
  "hai</w>": 28,
  "م</w>": 29,
  "ar</w>": 30,
  "ma": 31,
  "en</w>": 32,
  "hu": 33,
  "ل</w>": 34,
  "میں</w>": 35,
  "m</w>": 36,
  "ab": 37,
  "ان": 38,
  "ہیں</w>": 39,
  "is": 40,
  "na</w>": 41,
  "hi</w>": 42,
  "ki</w>": 43,
  "h</w>": 44,
  "وں</w>": 45,
  "ت</w>": 46,
  "سے</w>": 47,
  "ir": 48,
  "l</w>": 49,
  "t</w>": 50,
  "ya</w>": 51,
  "یا</w>": 52,
  "ب</w>": 53,
  "se</w>": 54,
  "men</w>": 55,
  "ba": 56,
  "بھ": 57,
  "س</w>": 58,
  "sa": 59,
  "اں</w>": 60,
  "ne</w>": 61,
  "کے</w>": 62,
  "ke</w>": 63,
  "na": 64,
  "di": 65,
  "ta": 66,
  "ھ</w>": 67,
  "کی</w>": 68,
  "د</w>": 69,
  "بھی</w>": 70,
  "ن</w>": 71,
  "da": 72,
  "un</w>": 73,
  "نہ</w>": 74,
  "کو</w>": 75,
  "ko</w>": 76,
  "تو</w>": 77,
  "kh": 78,
  "نے</w>": 79,
  "d</w>": 80,
  "ک</w>": 81,
  "ch": 82,
  "sh": 83,
  "ئے</w>": 84,
  "ye</w>": 85,
  "ra": 86,
  "ہو": 87,
  "ka</w>": 88,
  "کا</w>": 89,
  "ئی</w>": 90,
  "ار</w>": 91,
  "hain</w>": 92,
  "la": 93,
  "bhi</w>": 94,
  "mu": 95,
  "کھ": 96,
  "to</w>": 97,
  "r</w>": 98,
  "k</w>": 99,
  "ja": 100,
  "on</w>": 101,
  "ka": 102,
  "va": 103,
  "تھ": 104,
  "te</w>": 105,
  "نہیں</w>": 106,
  "ga": 107,
  "nahin</w>": 108,
  "کیا</w>": 109,
  "تا</w>": 110,
  "رے</w>": 111,
  "تے</w>": 112,
  "ری</w>": 113,
  "دل</w>": 114,
  "s</w>": 115,
  "tu": 116,
  "ham</w>": 117,
  "را": 118,
  "اس</w>": 119,
  "دی": 120,
  "کہ</w>": 121,
  "ہی</w>": 122,
  "وہ</w>": 123,
  "ho</w>": 124,
  "ہم</w>": 125,
  "ya": 126,
  "kya</w>": 127,
  "یہ</w>": 128,
  "جا": 129,
  "vo</w>": 130,
  "dil</w>": 131,
  "با": 132,
  "ور</w>": 133,
  "نا</w>": 134,
  "مج": 135,
  "za": 136,
  "ni": 137,
  "ال": 138,
  "کو": 139,
  "he</w>": 140,
  "su": 141,
  "ho": 142,
  "ق</w>": 143,
  "جو</w>": 144,
  "اب</w>": 145,
  "qa": 146,
  "ز</w>": 147,
  "de": 148,
  "jo</w>": 149,
  "کر</w>": 150,
  "می": 151,
  "ti</w>": 152,
  "tha</w>": 153,
  "ش</w>": 154,
  "ku": 155,
  "ur</w>": 156,
  "gu": 157,
  "mi": 158,
  "تی</w>": 159,
  "ہر</w>": 160,
  "z</w>": 161,
  "نا": 162,
  "li": 163,
  "خو": 164,
  "us</w>": 165,
  "pa": 166,
  "in": 167,
  "تھا</w>": 168,
  "muj": 169,
  "ای": 170,
  "le</w>": 171,
  "main</w>": 172,
  "ko": 173,
  "q</w>": 174,
  "er": 175,
  "گر</w>": 176,
  "کہ": 177,
  "gha": 178,
  "رو": 179,
  "یا": 180,
  "نگ": 181,
  "du": 182,
  "ng": 183,
  "ھے</w>": 184,
  "سا": 185,
  "کوئی</w>": 186,
  "koi</w>": 187,
  "سی</w>": 188,
  "لے</w>": 189,
  "ھر</w>": 190,
  "fa": 191,
  "si": 192,
  "کی": 193,
  "اک</w>": 194,
  "اپ": 195,
  "huun</w>": 196,
  "چھ</w>": 197,
  "ؔ</w>": 198,
  "chh</w>": 199,
  "پر</w>": 200,
  "لی": 201,
  "ap": 202,
  "'</w>": 203,
  "دا": 204,
  "چھ": 205,
  "m-e-": 206,
  "ki": 207,
  "ف</w>": 208,
  "ست": 209,
  "اور</w>": 210,
  "aur</w>": 211,
  "بے</w>": 212,
  "ما": 213,
  "ۂ</w>": 214,
  "کچھ</w>": 215,
  "kuchh</w>": 216,
  "تی": 217,
  "رہ": 218,
  "t-e-": 219,
  "o-": 220,
  "yu": 221,
  "ab</w>": 222,
  "سو": 223,
  "لا</w>": 224,
  "l-e-": 225,
  "ج</w>": 226,
  "-o-": 227,
  "گی</w>": 228,
  "ہوا</w>": 229,
  "گا</w>": 230,
  "be-": 231,
  "ph": 232,
  "پہ</w>": 233,
  "ہا": 234,
  "pe</w>": 235,
  "کر": 236,
  "ti": 237,
  "bu": 238,
  "نی</w>": 239,
  "gi</w>": 240,
  "ik</w>": 241,
  "بی": 242,
  "gaya</w>": 243,
  "ju": 244,
  "گیا</w>": 245,
  "man</w>": 246,
  "شق</w>": 247,
  "مح": 248,
  "دیکھ": 249,
  "ru": 250,
  "ند": 251,
  "لا": 252,
  "yuun</w>": 253,
  "مجھے</w>": 254,
  "ری": 255,
  "n-e-": 256,
  "an": 257,
  "مجھ</w>": 258,
  "لو": 259,
  "f</w>": 260,
  "شا": 261,
  "hua</w>": 262,
  "کا": 263,
  "اے</w>": 264,
  "ai</w>": 265,
  "ح</w>": 266,
  "j</w>": 267,
  "یر</w>": 268,
  "mujhe</w>": 269,
  "عشق</w>": 270,
  "گے</w>": 271,
  "ٹھ": 272,
  "پھر</w>": 273,
  "phir</w>": 274,
  "جب</w>": 275,
  "طر": 276,
  "وا": 277,
  "mer": 278,
  "mujh</w>": 279,
  "tu</w>": 280,
  "the</w>": 281,
  "ئیں</w>": 282,
  "ji": 283,
  "نظ": 284,
  "غم</w>": 285,
  "تج": 286,
  "ishq</w>": 287,
  "hi": 288,
  "کس</w>": 289,
  "مو": 290,
  "mo": 291,
  "thi</w>": 292,
  "آن": 293,
  "رت</w>": 294,
  "th</w>": 295,
  "بہ": 296,
  "تم</w>": 297,
  "tuj": 298,
  "pu": 299,
  "b</w>": 300,
  "مت</w>": 301,
  "ek</w>": 302,
  "گ</w>": 303,
  "تھی</w>": 304,
  "سر</w>": 305,
  "d-e-": 306,
  "دو": 307,
  "ایک</w>": 308,
  "lu": 309,
  "le": 310,
  "پی": 311,
  "دہ</w>": 312,
  "جائے</w>": 313,
  "مع": 314,
  "دے</w>": 315,
  "پ</w>": 316,
  "در": 317,
  "zu": 318,
  "mat</w>": 319,
  "tum</w>": 320,
  "ter": 321,
  "گر": 322,
  "zi": 323,
  "جس</w>": 324,
  "کیوں</w>": 325,
  "ھو": 326,
  "کبھی</w>": 327,
  "eh": 328,
  "غ</w>": 329,
  "نظر</w>": 330,
  "بت</w>": 331,
  "چا": 332,
  "من</w>": 333,
  "کسی</w>": 334,
  "مرے</w>": 335,
  "ba-": 336,
  "gh": 337,
  "kyuun</w>": 338,
  "tak</w>": 339,
  "ات": 340,
  "دن</w>": 341,
  "mire</w>": 342,
  "g</w>": 343,
  "گئی</w>": 344,
  "جی": 345,
  "بر</w>": 346,
  "سی": 347,
  "دم</w>": 348,
  "m-": 349,
  "nazar</w>": 350,
  "fi": 351,
  "تم": 352,
  "تک</w>": 353,
  "اپنے</w>": 354,
  "بہت</w>": 355,
  "bahut</w>": 356,
  "گز": 357,
  "آج</w>": 358,
  "apne</w>": 359,
  "aaj</w>": 360,
  "نک": 361,
  "تا": 362,
  "magar</w>": 363,
  "مگر</w>": 364,
  "آ</w>": 365,
  "پہ": 366,
  "kiya</w>": 367,
  "z-e-": 368,
  "ڑ</w>": 369,
  "فر": 370,
  "ٹ</w>": 371,
  "baat</w>": 372,
  "bat</w>": 373,
  "سب</w>": 374,
  "gae</w>": 375,
  "شو": 376,
  "قت</w>": 377,
  "تری</w>": 378,
  "so": 379,
  "حس": 380,
  "ترے</w>": 381,
  "tire</w>": 382,
  "بر": 383,
  "یاد</w>": 384,
  "r-e-": 385,
  "tiri</w>": 386,
  "ؤں</w>": 387,
  "یوں</w>": 388,
  "گل</w>": 389,
  "dam</w>": 390,
  "گئے</w>": 391,
  "dekh</w>": 392,
  "فا</w>": 393,
  "do": 394,
  "تجھ</w>": 395,
  "tujh</w>": 396,
  "لہ</w>": 397,
  "نوں</w>": 398,
  "پا": 399,
  "مر</w>": 400,
  "sam": 401,
  "ہوئے</w>": 402,
  "اپنی</w>": 403,
  "apni</w>": 404,
  "hota</w>": 405,
  "nge</w>": 406,
  "مری</w>": 407,
  "شی": 408,
  "hue</w>": 409,
  "dagi</w>": 410,
  "bi": 411,
  "خ</w>": 412,
  "mau": 413,
  "jaae</w>": 414,
  "پو": 415,
  "ہوتا</w>": 416,
  "ط</w>": 417,
  "be": 418,
  "liye</w>": 419,
  "miri</w>": 420,
  "d-": 421,
  "کن</w>": 422,
  "اف": 423,
  "diya</w>": 424,
  "نیا</w>": 425,
  "یے</w>": 426,
  "dekh": 427,
  "ہوئی</w>": 428,
  "hui</w>": 429,
  "اٹھ": 430,
  "ro": 431,
  "ندگی</w>": 432,
  "بو": 433,
  "رنگ</w>": 434,
  "گھر</w>": 435,
  "yaad</w>": 436,
  "اگر</w>": 437,
  "میرے</w>": 438,
  "mere</w>": 439,
  "agar</w>": 440,
  "طرح</w>": 441,
  "لب</w>": 442,
  "نگا": 443,
  "آپ</w>": 444,
  "میری</w>": 445,
  "مر": 446,
  "آئے</w>": 447,
  "fu": 448,
  "meri</w>": 449,
  "خود</w>": 450,
  "ton</w>": 451,
  "جھ": 452,
  "lag": 453,
  "rat</w>": 454,
  "چ</w>": 455,
  "aap</w>": 456,
  "ut": 457,
  "درد</w>": 458,
  "زندگی</w>": 459,
  "ٔ</w>": 460,
  "ega</w>": 461,
  "جو": 462,
  "لگ": 463,
  "zindagi</w>": 464,
  "مل": 465,
  "q-e-": 466,
  "duni": 467,
  "من": 468,
  "l-": 469,
  "عا": 470,
  "پر": 471,
  "da-e-": 472,
  "دنیا</w>": 473,
  "خدا</w>": 474,
  "مے</w>": 475,
  "duniya</w>": 476,
  "زا": 477,
  "شب</w>": 478,
  "aaya</w>": 479,
  "جہاں</w>": 480,
  "mohab": 481,
  "سم</w>": 482,
  "f-e-": 483,
  "jal": 484,
  "اپنا</w>": 485,
  "apna</w>": 486,
  "khuda</w>": 487,
  "پھ": 488,
  "tum": 489,
  "aae</w>": 490,
  "حسن</w>": 491,
  "آیا</w>": 492,
  "صو": 493,
  "nik": 494,
  "ten</w>": 495,
  "na-": 496,
  "hus": 497,
  "mil": 498,
  "gul</w>": 499,
  "تیری</w>": 500,
  "teri</w>": 501,
  "خا": 502,
  "قا": 503,
  "ؤ</w>": 504,
  "قی</w>": 505,
  "محبت</w>": 506,
  "mohabbat</w>": 507,
  "um": 508,
  "ہما": 509,
  "قی": 510,
  "lo": 511,
  "کون</w>": 512,
  "ہمیں</w>": 513,
  "lam</w>": 514,
  "وہی</w>": 515,
  "qi</w>": 516,
  "raat</w>": 517,
  "آئ": 518,
  "saath</w>": 519,
  "ہن": 520,
  "وفا</w>": 521,
  "پڑ": 522,
  "ابھی</w>": 523,
  "it": 524,
  "اسے</w>": 525,
  "hen</w>": 526,
  "kare</w>": 527,
  "dhu": 528,
  "شت</w>": 529,
  "vaq": 530,
  "st</w>": 531,
  "ash": 532,
  "چش": 533,
  "re</w>": 534,
  "khud</w>": 535,
  "نی": 536,
  "vafa</w>": 537,
  "qat</w>": 538,
  "چاہ": 539,
  "کل</w>": 540,
  "میرا</w>": 541,
  "سن": 542,
  "has": 543,
  "enge</w>": 544,
  "تیرے</w>": 545,
  "kaun</w>": 546,
  "yat</w>": 547,
  "کم</w>": 548,
  "شہر</w>": 549,
  "haath</w>": 550,
  "کب</w>": 551,
  "سر": 552,
  "pai": 553,
  "رکھ": 554,
  "iz</w>": 555,
  "فت": 556,
  "لیکن</w>": 557,
  "lekin</w>": 558,
  "bad": 559,
  "bha": 560,
  "چشم</w>": 561,
  "un": 562,
  "zul": 563,
  "ul</w>": 564,
  "use</w>": 565,
  "ri</w>": 566,
  "ض</w>": 567,
  "qi": 568,
  "نام</w>": 569,
  "chho": 570,
  "شوق</w>": 571,
  "راہ</w>": 572,
  "کام</w>": 573,
  "af": 574,
  "karte</w>": 575,
  "dard</w>": 576,
  "بز": 577,
  "ع</w>": 578,
  "دیکھا</w>": 579,
  "زل</w>": 580,
  "ناز</w>": 581,
  "کرتے</w>": 582,
  "ستہ</w>": 583,
  "صل</w>": 584,
  "سخ": 585,
  "bhu": 586,
  "رم</w>": 587,
  "gh-e-": 588,
  "خم</w>": 589,
  "shau": 590,
  "ترا</w>": 591,
  "hamen</w>": 592,
  "as": 593,
  "ہوگا</w>": 594,
  "hoga</w>": 595,
  "yad</w>": 596,
  "بڑ": 597,
  "ge</w>": 598,
  "مہ</w>": 599,
  "sak": 600,
  "ہل</w>": 601,
  "گھ": 602,
  "mai": 603,
  "k-e-": 604,
  "dil-e-": 605,
  "بؔ</w>": 606,
  "وقت</w>": 607,
  "ve</w>": 608,
  "k-": 609,
  "t-": 610,
  "غیر</w>": 611,
  "chand</w>": 612,
  "ri": 613,
  "نگاہ</w>": 614,
  "سک": 615,
  "عالم</w>": 616,
  "جر</w>": 617,
  "اسی</w>": 618,
  "kam</w>": 619,
  "دکھ": 620,
  "b'</w>": 621,
  "jaata</w>": 622,
  "گو": 623,
  "تیرا</w>": 624,
  "لوگ</w>": 625,
  "log</w>": 626,
  "yon</w>": 627,
  "دھ": 628,
  "کہتے</w>": 629,
  "kahte</w>": 630,
  "ankhon</w>": 631,
  "jaate</w>": 632,
  "ہائے</w>": 633,
  "dhar</w>": 634,
  "shahr</w>": 635,
  "وی": 636,
  "شک</w>": 637,
  "samj": 638,
  "چلے</w>": 639,
  "husn</w>": 640,
  "صح": 641,
  "ghair</w>": 642,
  "lat</w>": 643,
  "فا": 644,
  "سمجھ": 645,
  "زل": 646,
  "baz": 647,
  "شام</w>": 648,
  "حال</w>": 649,
  "qu": 650,
  "توں</w>": 651,
  "zakh": 652,
  "khaya": 653,
  "tujhe</w>": 654,
  "dush": 655,
  "جائیں</w>": 656,
  "طرف</w>": 657,
  "آتا</w>": 658,
  "aata</w>": 659,
  "آخ": 660,
  "بن</w>": 661,
  "nigah</w>": 662,
  "kaam</w>": 663,
  "va-e-": 664,
  "او": 665,
  "chale</w>": 666,
  "خبر</w>": 667,
  "بزم</w>": 668,
  "v</w>": 669,
  "ghali": 670,
  "chashm-e-": 671,
  "ak": 672,
  "صب": 673,
  "فی": 674,
  "vaqt</w>": 675,
  "عمر</w>": 676,
  "sub": 677,
  "bo": 678,
  "ach": 679,
  "naam</w>": 680,
  "guzar</w>": 681,
  "گا": 682,
  "صبح</w>": 683,
  "اچھ": 684,
  "شہ</w>": 685,
  "قدر</w>": 686,
  "shauq</w>": 687,
  "آئی": 688,
  "ahl-e-": 689,
  "ص</w>": 690,
  "دۂ</w>": 691,
  "gah-e-": 692,
  "کت": 693,
  "آتے</w>": 694,
  "aate</w>": 695,
  "اہل</w>": 696,
  "حا": 697,
  "hava</w>": 698,
  "مد": 699,
  "achch": 700,
  "غال": 701,
  "te": 702,
  "samaj": 703,
  "خیال</w>": 704,
  "meh": 705,
  "j-e-": 706,
  "تو": 707,
  "ڑا</w>": 708,
  "liya</w>": 709,
  "تن": 710,
  "p</w>": 711,
  "b-e-": 712,
  "hij": 713,
  "شع": 714,
  "غالبؔ</w>": 715,
  "دش": 716,
  "aankh</w>": 717,
  "دوست</w>": 718,
  "'ghali": 719,
  "اح": 720,
  "duur</w>": 721,
  "بس</w>": 722,
  "یک</w>": 723,
  "بد": 724,
  "chhu": 725,
  "لک</w>": 726,
  "pi": 727,
  "ٹا</w>": 728,
  "زخم</w>": 729,
  "pe": 730,
  "dost</w>": 731,
  "کھی": 732,
  "چمن</w>": 733,
  "rau": 734,
  "gham-e-": 735,
  "یہی</w>": 736,
  "sh-e-": 737,
  "چرا": 738,
  "دیکھتے</w>": 739,
  "dekhte</w>": 740,
  "تر</w>": 741,
  "guz": 742,
  "اس": 743,
  "ثر</w>": 744,
  "آوا": 745,
  "مہ": 746,
  "ور": 747,
  "ha-e-": 748,
  "مش": 749,
  "گزر</w>": 750,
  "آخر</w>": 751,
  "حی": 752,
  "رض</w>": 753,
  "گل": 754,
  "جن</w>": 755,
  "'ghalib'</w>": 756,
  "r-": 757,
  "انت": 758,
  "خوش</w>": 759,
  "inti": 760,
  "ul": 761,
  "ایسے</w>": 762,
  "egi</w>": 763,
  "chh": 764,
  "آش": 765,
  "چی": 766,
  "پہلے</w>": 767,
  "ہد</w>": 768,
  "go": 769,
  "صی": 770,
  "manzi": 771,
  "چھوڑ</w>": 772,
  "chhod</w>": 773,
  "pahle</w>": 774,
  "aise</w>": 775,
  "ہوتی</w>": 776,
  "باد</w>": 777,
  "chaman</w>": 778,
  "یہاں</w>": 779,
  "جگر</w>": 780,
  "ham-": 781,
  "khvab</w>": 782,
  "fur": 783,
  "chahiye</w>": 784,
  "شن</w>": 785,
  "hoti</w>": 786,
  "زی": 787,
  "لتے</w>": 788,
  "rat-e-": 789,
  "iin</w>": 790,
  "تہ</w>": 791,
  "شمع</w>": 792,
  "وح": 793,
  "نق": 794,
  "umr</w>": 795,
  "بع": 796,
  "mud": 797,
  "کہہ</w>": 798,
  "زلف</w>": 799,
  "رز": 800,
  "امی": 801,
  "نڈ": 802,
  "سخن</w>": 803,
  "سفر</w>": 804,
  "ہوتے</w>": 805,
  "hote</w>": 806,
  "جیسے</w>": 807,
  "qat": 808,
  "zamin</w>": 809,
  "شر": 810,
  "وے</w>": 811,
  "naz": 812,
  "بل</w>": 813,
  "mush": 814,
  "عی": 815,
  "سہی</w>": 816,
  "چے</w>": 817,
  "نکلا</w>": 818,
  "nikla</w>": 819,
  "جن": 820,
  "جام</w>": 821,
  "بعد</w>": 822,
  "شاید</w>": 823,
  "shayad</w>": 824,
  "ۂ</w>": 825,
  "پوچھ</w>": 826,
  "آہ</w>": 827,
  "qaya": 828,
  "ذرا</w>": 829,
  "چل</w>": 830,
  "ہجر</w>": 831,
  "dh": 832,
  "کیسے</w>": 833,
  "حر</w>": 834,
  "re": 835,
  "ایسا</w>": 836,
  "قدم</w>": 837,
  "ankhen</w>": 838,
  "naq": 839,
  "jaati</w>": 840,
  "khayal</w>": 841,
  "puchh</w>": 842,
  "aisa</w>": 843,
  "رف</w>": 844,
  "زباں</w>": 845,
  "jigar</w>": 846,
  "اع": 847,
  "جسے</w>": 848,
  "موج</w>": 849,
  "منزل</w>": 850,
  "ملتا</w>": 851,
  "زہ</w>": 852,
  "لوم</w>": 853,
  "nigah-e-": 854,
  "ta-": 855,
  "milta</w>": 856,
  "دؔ</w>": 857,
  "suun</w>": 858,
  "jaaen</w>": 859,
  "vaale</w>": 860,
  "qadam</w>": 861,
  "معلوم</w>": 862,
  "kal</w>": 863,
  "zamana</w>": 864,
  "sukhan</w>": 865,
  "kiye</w>": 866,
  "اسدؔ</w>": 867,
  "قیامت</w>": 868,
  "qayamat</w>": 869,
  "baad</w>": 870,
  "داغ</w>": 871,
  "gi": 872,
  "'asa": 873,
  "'asad": 874,
  "اک": 875,
  "طلب</w>": 876,
  "chal</w>": 877,
  "ادا</w>": 878,
  "ساقی</w>": 879,
  "mai-": 880,
  "hijr</w>": 881,
  "dariya</w>": 882,
  "ٹی</w>": 883,
  "tama": 884,
  "haal</w>": 885,
  "زمانہ</w>": 886,
  "ada</w>": 887,
  "لگتا</w>": 888,
  "lagta</w>": 889,
  "تر": 890,
  "ڑے</w>": 891,
  "ادھر</w>": 892,
  "ham": 893,
  "چہ": 894,
  "ائی</w>": 895,
  "iz": 896,
  "'asad'</w>": 897,
  "آتی</w>": 898,
  "aati</w>": 899,
  "آس": 900,
  "پھول</w>": 901,
  "kr</w>": 902,
  "بل": 903,
  "cheh": 904,
  "فس</w>": 905,
  "وص": 906,
  "zamane</w>": 907,
  "junun</w>": 908,
  "نکلے</w>": 909,
  "baten</w>": 910,
  "munh</w>": 911,
  "surat</w>": 912,
  "dil-": 913,
  "نم</w>": 914,
  "زمانے</w>": 915,
  "ڑی</w>": 916,
  "رؔ</w>": 917,
  "kuun</w>": 918,
  "zu</w>": 919,
  "dat</w>": 920,
  "sitam</w>": 921,
  "phuul</w>": 922,
  "anda": 923,
  "az": 924,
  "رب</w>": 925,
  "لط": 926,
  "آب</w>": 927,
  "ڈھو": 928,
  "روز</w>": 929,
  "صت</w>": 930,
  "ائے</w>": 931,
  "sau": 932,
  "اٹھا</w>": 933,
  "usi</w>": 934,
  "je</w>": 935,
  "subh</w>": 936,
  "shaam</w>": 937,
  "lte</w>": 938,
  "nikle</w>": 939,
  "لکھ": 940,
  "ضا</w>": 941,
  "buj": 942,
  "ڈھونڈ": 943,
  "بیٹھے</w>": 944,
  "baithe</w>": 945,
  "vahsha": 946,
  "چراغ</w>": 947,
  "آت": 948,
  "جے</w>": 949,
  "اخ": 950,
  "la-e-": 951,
  "ٹو": 952,
  "بنا</w>": 953,
  "آرز": 954,
  "باقی</w>": 955,
  "nam</w>": 956,
  "ہستی</w>": 957,
  "بخ": 958,
  "ایسی</w>": 959,
  "aisi</w>": 960,
  "لم</w>": 961,
  "jaega</w>": 962,
  "vat</w>": 963,
  "دشمن</w>": 964,
  "baaqi</w>": 965,
  "hasti</w>": 966,
  "maj": 967,
  "ٹے</w>": 968,
  "moh": 969,
  "id</w>": 970,
  "pyaar</w>": 971,
  "آد": 972,
  "ہمارے</w>": 973,
  "شے</w>": 974,
  "to": 975,
  "دیوار</w>": 976,
  "ظ</w>": 977,
  "fat</w>": 978,
  "ئیے</w>": 979,
  "aalam</w>": 980,
  "tamam</w>": 981,
  "راز</w>": 982,
  "آئینہ</w>": 983,
  "ru</w>": 984,
  "آگے</w>": 985,
  "aage</w>": 986,
  "qad": 987,
  "جل</w>": 988,
  "پوچھ": 989,
  "طا": 990,
  "خط</w>": 991,
  "sat</w>": 992,
  "عجب</w>": 993,
  "زمیں</w>": 994,
  "آتش</w>": 995,
  "varna</w>": 996,
  "آدمی</w>": 997,
  "aad": 998,
  "aadmi</w>": 999,
  "asman</w>": 1000,
  "jo": 1001,
  "محف": 1002,
  "وحشت</w>": 1003,
  "itna</w>": 1004,
  "us": 1005,
  "jiye</w>": 1006,
  "tumhen</w>": 1007,
  "dil": 1008,
  "آہ": 1009,
  "khe": 1010,
  "تمام</w>": 1011,
  "h-e-": 1012,
  "ٰ</w>": 1013,
  "لہو</w>": 1014,
  "داد</w>": 1015,
  "ورنہ</w>": 1016,
  "رن": 1017,
  "سحر</w>": 1018,
  "انتظ": 1019,
  "aina</w>": 1020,
  "mal</w>": 1021,
  "امید</w>": 1022,
  "وع": 1023,
  "lahu</w>": 1024,
  "اچھا</w>": 1025,
  "al": 1026,
  "تل</w>": 1027,
  "قرار</w>": 1028,
  "کش": 1029,
  "ٹھہ": 1030,
  "دست</w>": 1031,
  "صحرا</w>": 1032,
  "غاف": 1033,
  "il": 1034,
  "saaqi</w>": 1035,
  "siva</w>": 1036,
  "zakhm</w>": 1037,
  "عت</w>": 1038,
  "zulf</w>": 1039,
  "کھین": 1040,
  "نقش</w>": 1041,
  "-ha-e-": 1042,
  "tamanna</w>": 1043,
  "sakta</w>": 1044,
  "bu</w>": 1045,
  "خون</w>": 1046,
  "سب": 1047,
  "آرزو</w>": 1048,
  "رخ</w>": 1049,
  "حق</w>": 1050,
  "roz</w>": 1051,
  "آ": 1052,
  "ہماری</w>": 1053,
  "مق": 1054,
  "سمت</w>": 1055,
  "جز</w>": 1056,
  "kyun": 1057,
  "عاشق</w>": 1058,
  "بھول</w>": 1059,
  "bhuul</w>": 1060,
  "ۓ</w>": 1061,
  "لت</w>": 1062,
  "bazm</w>": 1063,
  "sahra</w>": 1064,
  "غافل</w>": 1065,
  "وق</w>": 1066,
  "ajab</w>": 1067,
  "ashna</w>": 1068,
  "pat": 1069,
  "گئیں</w>": 1070,
  "gaiin</w>": 1071,
  "انتظار</w>": 1072,
  "کرتا</w>": 1073,
  "karta</w>": 1074,
  "صد</w>": 1075,
  "خرا": 1076,
  "kahiye</w>": 1077,
  "میرؔ</w>": 1078,
  "'mir": 1079,
  "انداز</w>": 1080,
  "su</w>": 1081,
  "اشک</w>": 1082,
  "تنہا</w>": 1083,
  "tanha</w>": 1084,
  "he": 1085,
  "لتا</w>": 1086,
  "لتی</w>": 1087,
  "utha": 1088,
  "mauj-e-": 1089,
  "rang-e-": 1090,
  "سوز</w>": 1091,
  "nu": 1092,
  "بھی": 1093,
  "تع": 1094,
  "ساز</w>": 1095,
  "پاؤں</w>": 1096,
  "مس": 1097,
  "آسماں</w>": 1098,
  "thah": 1099,
  "عق": 1100,
  "jhu": 1101,
  "آشنا</w>": 1102,
  "شخ": 1103,
  "ikh": 1104,
  "ث</w>": 1105,
  "pur-": 1106,
  "آگ</w>": 1107,
  "aag</w>": 1108,
  "محفل</w>": 1109,
  "non</w>": 1110,
  "da-": 1111,
  "khat": 1112,
  "dushman</w>": 1113,
  "ije</w>": 1114,
  "شخص</w>": 1115,
  "shakhs</w>": 1116,
  "نگہ</w>": 1117,
  "dekhna</w>": 1118,
  "تیغ</w>": 1119,
  "paanv</w>": 1120,
  "نہاں</w>": 1121,
  "رتے</w>": 1122,
  "guf": 1123,
  "zo": 1124,
  "دیکھنا</w>": 1125,
  "بھلا</w>": 1126,
  "sur": 1127,
  "شہ": 1128,
  "zau": 1129,
  "الفت</w>": 1130,
  "آوے</w>": 1131,
  "'mir'</w>": 1132,
  "دامن</w>": 1133,
  "آواز</w>": 1134,
  "اثر</w>": 1135,
  "mahfil</w>": 1136,
  "khud-": 1137,
  "samajh</w>": 1138,
  "bazm-e-": 1139,
  "ذوق</w>": 1140,
  "ہوش</w>": 1141,
  "maq": 1142,
  "aave</w>": 1143,
  "آہستہ</w>": 1144,
  "جلوہ</w>": 1145,
  "صدا</w>": 1146,
  "dos": 1147,
  "طو": 1148,
  "iye</w>": 1149,
  "dte</w>": 1150,
  "ار": 1151,
  "موت</w>": 1152,
  "lete</w>": 1153,
  "ashiq</w>": 1154,
  "بنے</w>": 1155,
  "miyan</w>": 1156,
  "samajh": 1157,
  "uth": 1158,
  "ئ</w>": 1159,
  "divar</w>": 1160,
  "ma-e-": 1161,
  "insan</w>": 1162,
  "کرتی</w>": 1163,
  "karti</w>": 1164,
  "فرصت</w>": 1165,
  "ڈھ": 1166,
  "hayat</w>": 1167,
  "لنے</w>": 1168,
  "جاؤ</w>": 1169,
  "خاطر</w>": 1170,
  "rasta</w>": 1171,
  "g-e-": 1172,
  "لیتے</w>": 1173,
  "لطف</w>": 1174,
  "جدا</w>": 1175,
  "juda</w>": 1176,
  "مژ": 1177,
  "نو": 1178,
  "بند</w>": 1179,
  "e'": 1180,
  "دعا</w>": 1181,
  "nau": 1182,
  "haq</w>": 1183,
  "چھی": 1184,
  "رخ": 1185,
  "dam-e-": 1186,
  "ib</w>": 1187,
  "unhen</w>": 1188,
  "گزرے</w>": 1189,
  "کیجے</w>": 1190,
  "kiije</w>": 1191,
  "فلک</w>": 1192,
  "شک": 1193,
  "va-": 1194,
  "khudi</w>": 1195,
  "چلا</w>": 1196,
  "dua</w>": 1197,
  "زن</w>": 1198,
  "عہد</w>": 1199,
  "طبی": 1200,
  "ریب</w>": 1201,
  "داغ": 1202,
  "چاہیے</w>": 1203,
  "dagh": 1204,
  "بط</w>": 1205,
  "غاں</w>": 1206,
  "گہ</w>": 1207,
  "bata": 1208,
  "kyunkar</w>": 1209,
  "کیسی</w>": 1210,
  "at</w>": 1211,
  "حقی": 1212,
  "jam</w>": 1213,
  "اللہ</w>": 1214,
  "چند</w>": 1215,
  "کیو": 1216,
  "jaao</w>": 1217,
  "قؔ</w>": 1218,
  "ya-e-": 1219,
  "دیتے</w>": 1220,
  "dete</w>": 1221,
  "گی": 1222,
  "کھلا</w>": 1223,
  "hat": 1224,
  "چو": 1225,
  "نصی": 1226,
  "jau": 1227,
  "جاؤں</w>": 1228,
  "husn-e-": 1229,
  "تماشا</w>": 1230,
  "جود</w>": 1231,
  "hosh</w>": 1232,
  "بجھ": 1233,
  "ہونا</w>": 1234,
  "hona</w>": 1235,
  "فراقؔ</w>": 1236,
  "'fira": 1237,
  "'firaq": 1238,
  "vasl</w>": 1239,
  "aarzu</w>": 1240,
  "از</w>": 1241,
  "رکھا</w>": 1242,
  "خودی</w>": 1243,
  "آئنہ</w>": 1244,
  "e'ti": 1245,
  "نفس</w>": 1246,
  "مث": 1247,
  "تق": 1248,
  "تلا": 1249,
  "-ba-": 1250,
  "haqi": 1251,
  "حاصل</w>": 1252,
  "guzre</w>": 1253,
  "lam": 1254,
  "چلو</w>": 1255,
  "ڈو": 1256,
  "ruu": 1257,
  "ام": 1258,
  "ya-": 1259,
  "پردہ</w>": 1260,
  "زن": 1261,
  "avaz</w>": 1262,
  "taq": 1263,
  "چیز</w>": 1264,
  "چپ</w>": 1265,
  "تک": 1266,
  "ہر": 1267,
  "'firaq'</w>": 1268,
  "سنبھ": 1269,
  "im": 1270,
  "فکر</w>": 1271,
  "آنسو</w>": 1272,
  "aansu</w>": 1273,
  "daman</w>": 1274,
  "shik": 1275,
  "شیخ</w>": 1276,
  "حض": 1277,
  "samjhe</w>": 1278,
  "چاہتا</w>": 1279,
  "chahta</w>": 1280,
  "دت</w>": 1281,
  "ulfat</w>": 1282,
  "karna</w>": 1283,
  "داغؔ</w>": 1284,
  "'dagh": 1285,
  "پیدا</w>": 1286,
  "paida</w>": 1287,
  "naqsh-e-": 1288,
  "jante</w>": 1289,
  "jaegi</w>": 1290,
  "chiiz</w>": 1291,
  "ظفرؔ</w>": 1292,
  "'zafar": 1293,
  "'zafar'</w>": 1294,
  "کھل</w>": 1295,
  "'dagh'</w>": 1296,
  "پھی": 1297,
  "ترک</w>": 1298,
  "اکثر</w>": 1299,
  "mushkil</w>": 1300,
  "رنج</w>": 1301,
  "ذکر</w>": 1302,
  "ہوس</w>": 1303,
  "am": 1304,
  "ashk</w>": 1305,
  "گریباں</w>": 1306,
  "ub</w>": 1307,
  "کہتا</w>": 1308,
  "kahta</w>": 1309,
  "گرچہ</w>": 1310,
  "garche</w>": 1311,
  "صاح": 1312,
  "تش": 1313,
  "بیٹھ": 1314,
  "pade</w>": 1315,
  "خوش": 1316,
  "فراز": 1317,
  "قسمت</w>": 1318,
  "وہاں</w>": 1319,
  "itni</w>": 1320,
  "برق</w>": 1321,
  "طے</w>": 1322,
  "siine</w>": 1323,
  "رکھتے</w>": 1324,
  "rakhte</w>": 1325,
  "لق</w>": 1326,
  "دونوں</w>": 1327,
  "donon</w>": 1328,
  "شوخ</w>": 1329,
  "نۂ</w>": 1330,
  "گردش</w>": 1331,
  "ظا": 1332,
  "بچھ": 1333,
  "روشن</w>": 1334,
  "خی": 1335,
  "فرازؔ</w>": 1336,
  "'faraz": 1337,
  "'faraz'</w>": 1338,
  "qismat</w>": 1339,
  "گرد</w>": 1340,
  "سچ</w>": 1341,
  "raste</w>": 1342,
  "گاہ</w>": 1343,
  "dau": 1344,
  "جلو": 1345,
  "فن</w>": 1346,
  "عر": 1347,
  "طبیعت</w>": 1348,
  "au": 1349,
  "zauq-e-": 1350,
  "عذ": 1351,
  "حقیقت</w>": 1352,
  "chup</w>": 1353,
  "رش": 1354,
  "charagh</w>": 1355,
  "فراق</w>": 1356,
  "جیب</w>": 1357,
  "ہزار</w>": 1358,
  "پل": 1359,
  "ہوگی</w>": 1360,
  "hogi</w>": 1361,
  "rav": 1362,
  "udhar</w>": 1363,
  "tho": 1364,
  "ئل</w>": 1365,
  "zakhm-e-": 1366,
  "dard-e-": 1367,
  "tasv": 1368,
  "انج": 1369,
  "آزا": 1370,
  "اڑ": 1371,
  "s-e-": 1372,
  "صاحب</w>": 1373,
  "jud</w>": 1374,
  "آز": 1375,
  "ٹک</w>": 1376,
  "دع": 1377,
  "‌</w>": 1378,
  "qur": 1379,
  "تھیں</w>": 1380,
  "ahista</w>": 1381,
  "نغ": 1382,
  "nagh": 1383,
  "ابر</w>": 1384,
  "باغ</w>": 1385,
  "ہونے</w>": 1386,
  "hone</w>": 1387,
  "juz</w>": 1388,
  "idhar</w>": 1389,
  "divana</w>": 1390,
  "havas</w>": 1391,
  "اعت": 1392,
  "tumhare</w>": 1393,
  "حیرت</w>": 1394,
  "تصویر</w>": 1395,
  "ظاہر</w>": 1396,
  "puchh": 1397,
  "جہ</w>": 1398,
  "فرقت</w>": 1399,
  "لذ": 1400,
  "سمجھا</w>": 1401,
  "samjha</w>": 1402,
  "allah</w>": 1403,
  "خواہ": 1404,
  "honge</w>": 1405,
  "firaq</w>": 1406,
  "thiin</w>": 1407,
  "jagah</w>": 1408,
  "hasrat</w>": 1409,
  "جذ": 1410,
  "دیوانہ</w>": 1411,
  "غزل</w>": 1412,
  "kahna</w>": 1413,
  "غبار</w>": 1414,
  "gareban</w>": 1415,
  "tabiat</w>": 1416,
  "furqat</w>": 1417,
  "لذت</w>": 1418,
  "بن": 1419,
  "موسم</w>": 1420,
  "لمح": 1421,
  "khush-": 1422,
  "بغیر</w>": 1423,
  "قتل</w>": 1424,
  "ruuh</w>": 1425,
  "sakti</w>": 1426,
  "samne</w>": 1427,
  "ڈر</w>": 1428,
  "چم": 1429,
  "رتا</w>": 1430,
  "وس": 1431,
  "گلشن</w>": 1432,
  "رہتا</w>": 1433,
  "rahta</w>": 1434,
  "ئش</w>": 1435,
  "رگ</w>": 1436,
  "غر</w>": 1437,
  "haqiqat</w>": 1438,
  "کیونکر</w>": 1439,
  "تغافل</w>": 1440,
  "خوشبو</w>": 1441,
  "baghair</w>": 1442,
  "تنہائی</w>": 1443,
  "hava": 1444,
  "کہئے</w>": 1445,
  "ولی": 1446,
  "جسم</w>": 1447,
  "ikhti": 1448,
  "patt": 1449,
  "جگہ</w>": 1450,
  "mat": 1451,
  "جوش</w>": 1452,
  "oge</w>": 1453,
  "اعتبار</w>": 1454,
  "karne</w>": 1455,
  "fursat</w>": 1456,
  "no": 1457,
  "ہنر</w>": 1458,
  "سبب</w>": 1459,
  "رقی": 1460,
  "وصال</w>": 1461,
  "ra-e-": 1462,
  "قسم</w>": 1463,
  "قطرہ</w>": 1464,
  "khushbu</w>": 1465,
  "بڑھ": 1466,
  "مؔ</w>": 1467,
  "ائیں</w>": 1468,
  "حرف</w>": 1469,
  "iq": 1470,
  "jaenge</w>": 1471,
  "muddat</w>": 1472,
  "سینے</w>": 1473,
  "khur": 1474,
  "baton</w>": 1475,
  "parda</w>": 1476,
  "dast-e-": 1477,
  "vv": 1478,
  "جفا</w>": 1479,
  "دل": 1480,
  "ساغر</w>": 1481,
  "قر": 1482,
  "تہ": 1483,
  "عزی": 1484,
  "shokh</w>": 1485,
  "ہرگز</w>": 1486,
  "hargiz</w>": 1487,
  "جائیے</w>": 1488,
  "اختیار</w>": 1489,
  "tark-e-": 1490,
  "zikr</w>": 1491,
  "خوب</w>": 1492,
  "jalva-e-": 1493,
  "rakkha</w>": 1494,
  "bura</w>": 1495,
  "سلی": 1496,
  "سوئے</w>": 1497,
  "rukh": 1498,
  "faqat</w>": 1499,
  "سورج</w>": 1500,
  "لوٹ</w>": 1501,
  "tanhai</w>": 1502,
  "صرف</w>": 1503,
  "ولیؔ</w>": 1504,
  "'vali": 1505,
  "'vali'</w>": 1506,
  "jism</w>": 1507,
  "ikhtiyar</w>": 1508,
  "imti": 1509,
  "hon": 1510,
  "bayan</w>": 1511,
  "aq": 1512,
  "aksar</w>": 1513,
  "bhe": 1514,
  "جئے</w>": 1515,
  "شۂ</w>": 1516,
  "tasvir</w>": 1517,
  "shaikh</w>": 1518,
  "sau</w>": 1519,
  "بادہ</w>": 1520,
  "مص": 1521,
  "صنم</w>": 1522,
  "تلاش</w>": 1523,
  "غن": 1524,
  "gulshan</w>": 1525,
  "مزا": 1526,
  "محسنؔ</w>": 1527,
  "'moh": 1528,
  "'mohsin": 1529,
  "'mohsin'</w>": 1530,
  "dhuan</w>": 1531,
  "had</w>": 1532,
  "ہنس</w>": 1533,
  "hans</w>": 1534,
  "javab</w>": 1535,
  "janta</w>": 1536,
  "soz-e-": 1537,
  "pareshan</w>": 1538,
  "دیتا</w>": 1539,
  "deta</w>": 1540,
  "chehre</w>": 1541,
  "فنا</w>": 1542,
  "ناصح</w>": 1543,
  "حوص": 1544,
  "دید</w>": 1545,
  "بلبل</w>": 1546,
  "دگی</w>": 1547,
  "گزری</w>": 1548,
  "guzri</w>": 1549,
  "v-e-": 1550,
  "naya</w>": 1551,
  "daagh</w>": 1552,
  "suraj</w>": 1553,
  "taghaful</w>": 1554,
  "mehr": 1555,
  "نیند</w>": 1556,
  "niin": 1557,
  "niind</w>": 1558,
  "dukh</w>": 1559,
  "عنی</w>": 1560,
  "yunhi</w>": 1561,
  "bhi": 1562,
  "ضبط</w>": 1563,
  "جلا</w>": 1564,
  "لڑ": 1565,
  "sad-": 1566,
  "ضر</w>": 1567,
  "zinda</w>": 1568,
  "sai": 1569,
  "چھپا</w>": 1570,
  "chhupa</w>": 1571,
  "چکا</w>": 1572,
  "chuka</w>": 1573,
  "تیز</w>": 1574,
  "غی": 1575,
  "دیدار</w>": 1576,
  "jh</w>": 1577,
  "تب</w>": 1578,
  "jan-": 1579,
  "لوگوں</w>": 1580,
  "logon</w>": 1581,
  "yega</w>": 1582,
  "jaiye</w>": 1583,
  "یعنی</w>": 1584,
  "پتھر</w>": 1585,
  "ti-e-": 1586,
  "کھا</w>": 1587,
  "kahne</w>": 1588,
  "قص": 1589,
  "ehsan</w>": 1590,
  "adam</w>": 1591,
  "band</w>": 1592,
  "واعظ</w>": 1593,
  "juun</w>": 1594,
  "غرض</w>": 1595,
  "naseh</w>": 1596,
  "kitne</w>": 1597,
  "raten</w>": 1598,
  "زنجیر</w>": 1599,
  "صاف</w>": 1600,
  "صلہ</w>": 1601,
  "حجاب</w>": 1602,
  "گماں</w>": 1603,
  "حل": 1604,
  "سمجھتے</w>": 1605,
  "samajhte</w>": 1606,
  "جوہر</w>": 1607,
  "مزاج</w>": 1608,
  "josh-e-": 1609,
  "ummid</w>": 1610,
  "ishq-e-": 1611,
  "patthar</w>": 1612,
  "مطلب</w>": 1613,
  "e'tibar</w>": 1614,
  "ake": 1615,
  "دیدۂ</w>": 1616,
  "dida-e-": 1617,
  "پریشاں</w>": 1618,
  "چاہئے</w>": 1619,
  "پیش</w>": 1620,
  "du</w>": 1621,
  "pur": 1622,
  "حشر</w>": 1623,
  "شنی</w>": 1624,
  "پتا</w>": 1625,
  "فصل</w>": 1626,
  "کف</w>": 1627,
  "نت</w>": 1628,
  "سمندر</w>": 1629,
  "muddaa</w>": 1630,
  "chashm</w>": 1631,
  "کیسا</w>": 1632,
  "تلک</w>": 1633,
  "کاش</w>": 1634,
  "qatra</w>": 1635,
  "chehra</w>": 1636,
  "جلوۂ</w>": 1637,
  "arz-e-": 1638,
  "javani</w>": 1639,
  "diyon</w>": 1640,
  "hai": 1641,
  "عقل</w>": 1642,
  "ve": 1643,
  "زہر</w>": 1644,
  "سینہ</w>": 1645,
  "sabr</w>": 1646,
  "زبان</w>": 1647,
  "حد</w>": 1648,
  "charagh-e-": 1649,
  "بول</w>": 1650,
  "سانس</w>": 1651,
  "saans</w>": 1652,
  "دھوپ</w>": 1653,
  "dhuu": 1654,
  "dhuup</w>": 1655,
  "ئی": 1656,
  "kr-e-": 1657,
  "آغ": 1658,
  "tumhari</w>": 1659,
  "dava</w>": 1660,
  "visal</w>": 1661,
  "mizh": 1662,
  "aj": 1663,
  "لگتی</w>": 1664,
  "جالبؔ</w>": 1665,
  "'jali": 1666,
  "'jalib'</w>": 1667,
  "qatl</w>": 1668,
  "la-": 1669,
  "پہلو</w>": 1670,
  "pahlu": 1671,
  "matlab</w>": 1672,
  "واسطے</w>": 1673,
  "vaste</w>": 1674,
  "زمی": 1675,
  "vaaiz</w>": 1676,
  "رہتے</w>": 1677,
  "rahte</w>": 1678,
  "zulf-e-": 1679,
  "طن</w>": 1680,
  "khuub</w>": 1681,
  "نصیب</w>": 1682,
  "روشنی</w>": 1683,
  "raushni</w>": 1684,
  "درکار</w>": 1685,
  "darkar</w>": 1686,
  "tasavv": 1687,
  "کئے</w>": 1688,
  "فطرت</w>": 1689,
  "دما": 1690,
  "خر": 1691,
  "mur": 1692,
  "حضرت</w>": 1693,
  "شکایت</w>": 1694,
  "samundar</w>": 1695,
  "ناز": 1696,
  "thi": 1697,
  "طاقت</w>": 1698,
  "شاد</w>": 1699,
  "خواہش</w>": 1700,
  "شش</w>": 1701,
  "nae</w>": 1702,
  "جمال</w>": 1703,
  "lagti</w>": 1704,
  "نئی</w>": 1705,
  "راحت</w>": 1706,
  "مکاں</w>": 1707,
  "me</w>": 1708,
  "muqad": 1709,
  "کسے</w>": 1710,
  "رستہ</w>": 1711,
  "marne</w>": 1712,
  "subh-e-": 1713,
  "rahguzar</w>": 1714,
  "khinch</w>": 1715,
  "تڑ": 1716,
  "اج": 1717,
  "dad</w>": 1718,
  "ud</w>": 1719,
  "قفس</w>": 1720,
  "say": 1721,
  "برباد</w>": 1722,
  "قط</w>": 1723,
  "طل": 1724,
  "ماہ</w>": 1725,
  "حلق": 1726,
  "su-e-": 1727,
  "آباد</w>": 1728,
  "shauq-e-": 1729,
  "zer-e-": 1730,
  "jur": 1731,
  "شعلہ</w>": 1732,
  "جدائی</w>": 1733,
  "رسوائی</w>": 1734,
  "لنا</w>": 1735,
  "نئے</w>": 1736,
  "اکبرؔ</w>": 1737,
  "'ak": 1738,
  "'akbar": 1739,
  "nihan</w>": 1740,
  "مض": 1741,
  "کدھر</w>": 1742,
  "عدم</w>": 1743,
  "رح": 1744,
  "خزاں</w>": 1745,
  "غض": 1746,
  "غضب</w>": 1747,
  "مٹ</w>": 1748,
  "بسر</w>": 1749,
  "لینا</w>": 1750,
  "lena</w>": 1751,
  "tegh-e-": 1752,
  "aql</w>": 1753,
  "توڑ</w>": 1754,
  "tod</w>": 1755,
  "اؤں</w>": 1756,
  "hashr</w>": 1757,
  "tez</w>": 1758,
  "barbad</w>": 1759,
  "آزاد</w>": 1760,
  "azad</w>": 1761,
  "تصور</w>": 1762,
  "رقیب</w>": 1763,
  "lutf</w>": 1764,
  "فقط</w>": 1765,
  "atish-e-": 1766,
  "حرم</w>": 1767,
  "didar</w>": 1768,
  "jinhen</w>": 1769,
  "سزا</w>": 1770,
  "امت": 1771,
  "عزیز</w>": 1772,
  "جرم</w>": 1773,
  "گنا": 1774,
  "حری": 1775,
  "shor</w>": 1776,
  "سخت</w>": 1777,
  "judai</w>": 1778,
  "گم</w>": 1779,
  "عجیب</w>": 1780,
  "ajiib</w>": 1781,
  "'akbar'</w>": 1782,
  "بتوں</w>": 1783,
  "pahlu</w>": 1784,
  "tumhara</w>": 1785,
  "be-khudi</w>": 1786,
  "کع": 1787,
  "tiir</w>": 1788,
  "دیکھتا</w>": 1789,
  "dekhta</w>": 1790,
  "مانند</w>": 1791,
  "avar": 1792,
  "انجمن</w>": 1793,
  "sad": 1794,
  "مثل</w>": 1795,
  "چۂ</w>": 1796,
  "خت</w>": 1797,
  "فضا</w>": 1798,
  "gardish-e-": 1799,
  "shikayat</w>": 1800,
  "khi-e-": 1801,
  "badla</w>": 1802,
  "قو": 1803,
  "goya</w>": 1804,
  "خل": 1805,
  "majnun</w>": 1806,
  "khu</w>": 1807,
  "رستے</w>": 1808,
  "انساں</w>": 1809,
  "ڑھ": 1810,
  "dhte</w>": 1811,
  "آ</w>": 1812,
  "اداس</w>": 1813,
  "udaas</w>": 1814,
  "ہنوز</w>": 1815,
  "شیشہ</w>": 1816,
  "مٹ": 1817,
  "چین</w>": 1818,
  "bayaban</w>": 1819,
  "فغاں</w>": 1820,
  "fughan</w>": 1821,
  "me": 1822,
  "ظلم</w>": 1823,
  "az-": 1824,
  "jalva-": 1825,
  "غرور</w>": 1826,
  "di-e-": 1827,
  "عیش</w>": 1828,
  "زاہد</w>": 1829,
  "duun</w>": 1830,
  "انسان</w>": 1831,
  "زت</w>": 1832,
  "سوچ</w>": 1833,
  "soch</w>": 1834,
  "rah-": 1835,
  "شبنم</w>": 1836,
  "itne</w>": 1837,
  "خفا</w>": 1838,
  "بگ": 1839,
  "nadan</w>": 1840,
  "پنہاں</w>": 1841,
  "pinhan</w>": 1842,
  "sayyad</w>": 1843,
  "tasavvur</w>": 1844,
  "پہنچا</w>": 1845,
  "pahuncha</w>": 1846,
  "نکلتی</w>": 1847,
  "nikalti</w>": 1848,
  "atish</w>": 1849,
  "کوئے</w>": 1850,
  "ku-e-": 1851,
  "زم</w>": 1852,
  "lazza": 1853,
  "رسم</w>": 1854,
  "نشا": 1855,
  "نشاط</w>": 1856,
  "اندھی": 1857,
  "خطا</w>": 1858,
  "مک</w>": 1859,
  "رکھتا</w>": 1860,
  "rakhta</w>": 1861,
  "خن": 1862,
  "خنجر</w>": 1863,
  "بیٹھا</w>": 1864,
  "baitha</w>": 1865,
  "milti</w>": 1866,
  "haya</w>": 1867,
  "yo</w>": 1868,
  "sakht</w>": 1869,
  "ranj</w>": 1870,
  "دماغ</w>": 1871,
  "کئی</w>": 1872,
  "rusvai</w>": 1873,
  "تکل": 1874,
  "takallu": 1875,
  "sirf</w>": 1876,
  "بتا</w>": 1877,
  "جوم</w>": 1878,
  "dosti</w>": 1879,
  "zahr</w>": 1880,
  "بس": 1881,
  "ثار</w>": 1882,
  "musku": 1883,
  "آؤ</w>": 1884,
  "خورشید</w>": 1885,
  "shabnam</w>": 1886,
  "ہمی": 1887,
  "pesh</w>": 1888,
  "گردن</w>": 1889,
  "ahd-e-": 1890,
  "چھوڑا</w>": 1891,
  "chhoda</w>": 1892,
  "milne</w>": 1893,
  "کمی</w>": 1894,
  "bas-": 1895,
  "bas-ki</w>": 1896,
  "فیض": 1897,
  "bulbul</w>": 1898,
  "fasl-e-": 1899,
  "وعدہ</w>": 1900,
  "نغمہ</w>": 1901,
  "fais": 1902,
  "گفت": 1903,
  "koh": 1904,
  "justuju": 1905,
  "بیچ</w>": 1906,
  "ذرہ</w>": 1907,
  "khun-": 1908,
  "zindan</w>": 1909,
  "پہنچے</w>": 1910,
  "چکے</w>": 1911,
  "کھلے</w>": 1912,
  "رتی</w>": 1913,
  "دود</w>": 1914,
  "ٹوٹ</w>": 1915,
  "tuut</w>": 1916,
  "hans": 1917,
  "اٹھتا</w>": 1918,
  "uthta</w>": 1919,
  "سلامت</w>": 1920,
  "دکھائی</w>": 1921,
  "tumhin</w>": 1922,
  "ذہن</w>": 1923,
  "karvan</w>": 1924,
  "بیاباں</w>": 1925,
  "hasrat-e-": 1926,
  "خوف</w>": 1927,
  "جہان</w>": 1928,
  "زے</w>": 1929,
  "دہر</w>": 1930,
  "خضر</w>": 1931,
  "بسمل</w>": 1932,
  "شیریں</w>": 1933,
  "پھرتے</w>": 1934,
  "phirte</w>": 1935,
  "اکیلا</w>": 1936,
  "akela</w>": 1937,
  "گہر</w>": 1938,
  "vaqt-e-": 1939,
  "pad": 1940,
  "گلستاں</w>": 1941,
  "صر</w>": 1942,
  "nau-": 1943,
  "kijiye</w>": 1944,
  "uz": 1945,
  "ib": 1946,
  "aina-e-": 1947,
  "بچ": 1948,
  "zanjir</w>": 1949,
  "misl-e-": 1950,
  "uda</w>": 1951,
  "be-ni": 1952,
  "لۂ</w>": 1953,
  "gu</w>": 1954,
  "غر": 1955,
  "جستجو</w>": 1956,
  "عاش": 1957,
  "khamosh</w>": 1958,
  "zarra</w>": 1959,
  "pahunche</w>": 1960,
  "chuke</w>": 1961,
  "بجا</w>": 1962,
  "لس": 1963,
  "بازار</w>": 1964,
  "tad": 1965,
  "اض": 1966,
  "روئے</w>": 1967,
  "تکلف</w>": 1968,
  "سوچ": 1969,
  "soch": 1970,
  "لف": 1971,
  "آوارگی</w>": 1972,
  "فیضؔ</w>": 1973,
  "'fa": 1974,
  "'faiz": 1975,
  "'faiz'</w>": 1976,
  "چلی</w>": 1977,
  "abr</w>": 1978,
  "مم": 1979,
  "dastan</w>": 1980,
  "بکھر</w>": 1981,
  "fikr</w>": 1982,
  "ہون": 1983,
  "bismil</w>": 1984,
  "dasht</w>": 1985,
  "kade</w>": 1986,
  "ہمیشہ</w>": 1987,
  "hamesha</w>": 1988,
  "کھینچ</w>": 1989,
  "shikva</w>": 1990,
  "aina-": 1991,
  "mahshar</w>": 1992,
  "kai": 1993,
  "chand": 1994,
  "شتر</w>": 1995,
  "پن": 1996,
  "رفتہ</w>": 1997,
  "rafta</w>": 1998,
  "سادہ</w>": 1999,
  "علم</w>": 2000,
  "fitrat</w>": 2001,
  "luun</w>": 2002,
  "فض": 2003,
  "گفتگو</w>": 2004,
  "guftu": 2005,
  "guftugu</w>": 2006,
  "saghar</w>": 2007,
  "justuju</w>": 2008,
  "yat-e-": 2009,
  "sakte</w>": 2010,
  "jalva</w>": 2011,
  "sharm</w>": 2012,
  "ru-e-": 2013,
  "shahr-e-": 2014,
  "khvahish</w>": 2015,
  "soh": 2016,
  "دینا</w>": 2017,
  "dena</w>": 2018,
  "garm</w>": 2019,
  "gardan</w>": 2020,
  "parde</w>": 2021,
  "zeh": 2022,
  "avargi</w>": 2023,
  "وسیمؔ</w>": 2024,
  "'vasim": 2025,
  "'vasim'</w>": 2026,
  "حالیؔ</w>": 2027,
  "'hali": 2028,
  "جگرؔ</w>": 2029,
  "'ji": 2030,
  "'jigar": 2031,
  "'jigar'</w>": 2032,
  "بج": 2033,
  "lad": 2034,
  "آفتاب</w>": 2035,
  "muqaddar</w>": 2036,
  "ہجوم</w>": 2037,
  "dahr</w>": 2038,
  "basti</w>": 2039,
  "قبا</w>": 2040,
  "rahne</w>": 2041,
  "کمر</w>": 2042,
  "خلوت</w>": 2043,
  "افسر": 2044,
  "afsur": 2045,
  "raton</w>": 2046,
  "بیمار</w>": 2047,
  "کمال</w>": 2048,
  "پھری</w>": 2049,
  "vatan</w>": 2050,
  "khamoshi</w>": 2051,
  "گن": 2052,
  "rag-e-": 2053,
  "زیادہ</w>": 2054,
  "lazzat-e-": 2055,
  "دیکھنے</w>": 2056,
  "dekhne</w>": 2057,
  "بازی</w>": 2058,
  "تازہ</w>": 2059,
  "مۂ</w>": 2060,
  "imtihan</w>": 2061,
  "وش</w>": 2062,
  "اد": 2063,
  "ahd</w>": 2064,
  "رخصت</w>": 2065,
  "مژگاں</w>": 2066,
  "کہیے</w>": 2067,
  "yyat</w>": 2068,
  "mehrban</w>": 2069,
  "اضطراب</w>": 2070,
  "رونے</w>": 2071,
  "rone</w>": 2072,
  "پردے</w>": 2073,
  "darmiyan</w>": 2074,
  "aaen</w>": 2075,
  "havaon</w>": 2076,
  "'hali'</w>": 2077,
  "duu": 2078,
  "marg</w>": 2079,
  "شکست</w>": 2080,
  "وہم</w>": 2081,
  "نشیں</w>": 2082,
  "sambhal</w>": 2083,
  "ہمت</w>": 2084,
  "سج": 2085,
  "ڈھونڈتے</w>": 2086,
  "dhundte</w>": 2087,
  "ay": 2088,
  "ghubar-e-": 2089,
  "ge": 2090,
  "gulistan</w>": 2091,
  "ہنسی</w>": 2092,
  "شہی": 2093,
  "عل</w>": 2094,
  "وطن</w>": 2095,
  "محو</w>": 2096,
  "چاندنی</w>": 2097,
  "chandni</w>": 2098,
  "سنتے</w>": 2099,
  "sunte</w>": 2100,
  "girya</w>": 2101,
  "ziyada</w>": 2102,
  "جینے</w>": 2103,
  "fikr-e-": 2104,
  "پیچ</w>": 2105,
  "وجود</w>": 2106,
  "خس</w>": 2107,
  "جم</w>": 2108,
  "فیصلہ</w>": 2109,
  "faisla</w>": 2110,
  "قید</w>": 2111,
  "سودا</w>": 2112,
  "ذی": 2113,
  "تشنہ</w>": 2114,
  "shokhi-e-": 2115,
  "hazrat-e-": 2116,
  "نازک</w>": 2117,
  "baagh</w>": 2118,
  "be-khabar</w>": 2119,
  "mizhgan</w>": 2120,
  "اٹھائے</w>": 2121,
  "takalluf</w>": 2122,
  "دنوں</w>": 2123,
  "taallu": 2124,
  "aziiz</w>": 2125,
  "جیتے</w>": 2126,
  "tagi</w>": 2127,
  "barq-e-": 2128,
  "کدے</w>": 2129,
  "manzar</w>": 2130,
  "arman</w>": 2131,
  "rakkhe</w>": 2132,
  "لئے</w>": 2133,
  "zabt</w>": 2134,
  "دہ": 2135,
  "ٹک": 2136,
  "بیگانہ</w>": 2137,
  "مزہ</w>": 2138,
  "za-e-": 2139,
  "عکس</w>": 2140,
  "ظر</w>": 2141,
  "زمین</w>": 2142,
  "aao</w>": 2143,
  "ڑوں</w>": 2144,
  "لکھن": 2145,
  "لکھنؤ</w>": 2146,
  "luc": 2147,
  "luck": 2148,
  "luckno": 2149,
  "lucknow": 2150,
  "lucknow</w>": 2151,
  "fariyad</w>": 2152,
  "رگ": 2153,
  "huk": 2154,
  "دھڑ": 2155,
  "ازل</w>": 2156,
  "ne": 2157,
  "الٹی</w>": 2158,
  "ulti</w>": 2159,
  "زوں</w>": 2160,
  "اگرچہ</w>": 2161,
  "agarche</w>": 2162,
  "حنا</w>": 2163,
  "jiine</w>": 2164,
  "دولت</w>": 2165,
  "بھری</w>": 2166,
  "شوخی</w>": 2167,
  "پیرہن</w>": 2168,
  "khanjar</w>": 2169,
  "کعبہ</w>": 2170,
  "ہووے</w>": 2171,
  "بیداد</w>": 2172,
  "صحبت</w>": 2173,
  "ja-e-": 2174,
  "bevafa</w>": 2175,
  "jag": 2176,
  "daur-e-": 2177,
  "درمیاں</w>": 2178,
  "sukun</w>": 2179,
  "بحر</w>": 2180,
  "رع": 2181,
  "be-qarar</w>": 2182,
  "mitti</w>": 2183,
  "ممکن</w>": 2184,
  "mumkin</w>": 2185,
  "mauj</w>": 2186,
  "یقیں</w>": 2187,
  "parvana</w>": 2188,
  "jad</w>": 2189,
  "guhar</w>": 2190,
  "لہ": 2191,
  "یوس": 2192,
  "الجھ": 2193,
  "tiyan</w>": 2194,
  "sa-e-": 2195,
  "زور</w>": 2196,
  "مخ": 2197,
  "tegh</w>": 2198,
  "hamdam</w>": 2199,
  "باہر</w>": 2200,
  "ضع": 2201,
  "ضعف</w>": 2202,
  "اق": 2203,
  "متاع</w>": 2204,
  "leta</w>": 2205,
  "khvar</w>": 2206,
  "pa-e-": 2207,
  "گوہر</w>": 2208,
  "نیم</w>": 2209,
  "intiha</w>": 2210,
  "کھیل</w>": 2211,
  "adab</w>": 2212,
  "tishna-": 2213,
  "بجھا</w>": 2214,
  "bujha</w>": 2215,
  "گناہ</w>": 2216,
  "غف": 2217,
  "ضد</w>": 2218,
  "sat-e-": 2219,
  "مصیبت</w>": 2220,
  "ada": 2221,
  "آرام</w>": 2222,
  "عدو</w>": 2223,
  "adu</w>": 2224,
  "جلتے</w>": 2225,
  "سہل</w>": 2226,
  "uthae</w>": 2227,
  "تۂ</w>": 2228,
  "ہہ</w>": 2229,
  "muf": 2230,
  "ہج": 2231,
  "تعلق</w>": 2232,
  "maqtal</w>": 2233,
  "حیراں</w>": 2234,
  "پتہ</w>": 2235,
  "ande": 2236,
  "jannat</w>": 2237,
  "milna</w>": 2238,
  "tur": 2239,
  "قضا</w>": 2240,
  "bahr-e-": 2241,
  "zulf": 2242,
  "منت": 2243,
  "منتظر</w>": 2244,
  "فہ</w>": 2245,
  "اول</w>": 2246,
  "ya-rab</w>": 2247,
  "زر</w>": 2248,
  "یوسف</w>": 2249,
  "anjuman</w>": 2250,
  "po": 2251,
  "chhed</w>": 2252,
  "jalve</w>": 2253,
  "کھول</w>": 2254,
  "khol</w>": 2255,
  "umr-e-": 2256,
  "sata": 2257,
  "مرد</w>": 2258,
  "لیتا</w>": 2259,
  "تقدیر</w>": 2260,
  "مثال</w>": 2261,
  "رک</w>": 2262,
  "قد": 2263,
  "پیغ": 2264,
  "عذر</w>": 2265,
  "khel</w>": 2266,
  "وعدۂ</w>": 2267,
  "بنتا</w>": 2268,
  "banta</w>": 2269,
  "دعوی": 2270,
  "jurm</w>": 2271,
  "thahri</w>": 2272,
  "تل": 2273,
  "tuk</w>": 2274,
  "نز": 2275,
  "پانچ</w>": 2276,
  "panch</w>": 2277,
  "قلم</w>": 2278,
  "harf</w>": 2279,
  "fareb</w>": 2280,
  "دیدہ</w>": 2281,
  "-ru</w>": 2282,
  "taalluq</w>": 2283,
  "کسو</w>": 2284,
  "ہاۓ</w>": 2285,
  "jiite</w>": 2286,
  "khvab-e-": 2287,
  "har-chand</w>": 2288,
  "ذ</w>": 2289,
  "ilti": 2290,
  "بوجھ</w>": 2291,
  "zehn</w>": 2292,
  "صدیوں</w>": 2293,
  "luut</w>": 2294,
  "افسوس</w>": 2295,
  "afso": 2296,
  "سیم</w>": 2297,
  "ashiyan</w>": 2298,
  "zulm</w>": 2299,
  "lik": 2300,
  "تھک</w>": 2301,
  "thak</w>": 2302,
  "قصہ</w>": 2303,
  "عب": 2304,
  "عبث</w>": 2305,
  "ehti": 2306,
  "ہونٹوں</w>": 2307,
  "honton</w>": 2308,
  "کدہ</w>": 2309,
  "vi": 2310,
  "قیس</w>": 2311,
  "qais</w>": 2312,
  "پسند</w>": 2313,
  "آمد</w>": 2314,
  "نثار</w>": 2315,
  "ون</w>": 2316,
  "nigah-e-naz</w>": 2317,
  "uq": 2318,
  "نگاہیں</w>": 2319,
  "nigahen</w>": 2320,
  "siyah</w>": 2321,
  "کٹ</w>": 2322,
  "ur": 2323,
  "بچھڑ</w>": 2324,
  "bichhad</w>": 2325,
  "نرگ": 2326,
  "agahi</w>": 2327,
  "hausla</w>": 2328,
  "کلی": 2329,
  "علاج</w>": 2330,
  "soz</w>": 2331,
  "ma-": 2332,
  "z-o-": 2333,
  "عذاب</w>": 2334,
  "صد": 2335,
  "masti</w>": 2336,
  "pyare</w>": 2337,
  "dua": 2338,
  "گھڑی</w>": 2339,
  "ghadi</w>": 2340,
  "anjam</w>": 2341,
  "نگاہوں</w>": 2342,
  "nigahon</w>": 2343,
  "ziyan</w>": 2344,
  "برپا</w>": 2345,
  "barpa</w>": 2346,
  "parda-e-": 2347,
  "قہ</w>": 2348,
  "garmi": 2349,
  "nazuk</w>": 2350,
  "ذات</w>": 2351,
  "lutf-e-": 2352,
  "بوسہ</w>": 2353,
  "maujud</w>": 2354,
  "تاث": 2355,
  "تاثیر</w>": 2356,
  "ghubar</w>": 2357,
  "دعویٰ</w>": 2358,
  "چرخ</w>": 2359,
  "شاہ</w>": 2360,
  "زو</w>": 2361,
  "sahl</w>": 2362,
  "سدا</w>": 2363,
  "divane</w>": 2364,
  "ئم</w>": 2365,
  "dimagh</w>": 2366,
  "مہرباں</w>": 2367,
  "javan</w>": 2368,
  "کھلتا</w>": 2369,
  "نما</w>": 2370,
  "ریت</w>": 2371,
  "atish": 2372,
  "saval</w>": 2373,
  "zinda": 2374,
  "مذ": 2375,
  "خوباں</w>": 2376,
  "khuban</w>": 2377,
  "مائش</w>": 2378,
  "رہتی</w>": 2379,
  "rahti</w>": 2380,
  "الزام</w>": 2381,
  "وہیں</w>": 2382,
  "samt</w>": 2383,
  "afsos</w>": 2384,
  "liyan</w>": 2385,
  "گھٹ": 2386,
  "ڈرتے</w>": 2387,
  "darte</w>": 2388,
  "دیتی</w>": 2389,
  "deti</w>": 2390,
  "عید</w>": 2391,
  "'-e-": 2392,
  "حباب</w>": 2393,
  "بۂ</w>": 2394,
  "khizr</w>": 2395,
  "pasand</w>": 2396,
  "بوئے</w>": 2397,
  "الٰ": 2398,
  "khurshid</w>": 2399,
  "بھرے</w>": 2400,
  "khauf</w>": 2401,
  "لعل</w>": 2402,
  "حر": 2403,
  "آئینۂ</w>": 2404,
  "aftab</w>": 2405,
  "had": 2406,
  "نرگس</w>": 2407,
  "abr-e-": 2408,
  "پچھ": 2409,
  "زخ": 2410,
  "ہزاروں</w>": 2411,
  "چھیڑ</w>": 2412,
  "بھا": 2413,
  "ہمدم</w>": 2414,
  "kucha-e-": 2415,
  "زیست</w>": 2416,
  "ilm</w>": 2417,
  "taqdir</w>": 2418,
  "شعلۂ</w>": 2419,
  "زگار</w>": 2420,
  "roz": 2421,
  "naghma</w>": 2422,
  "mahv-e-": 2423,
  "پیغام</w>": 2424,
  "گرفتار</w>": 2425,
  "ادب</w>": 2426,
  "سکوت</w>": 2427,
  "ہی": 2428,
  "seh": 2429,
  "garmi-e-": 2430,
  "غفلت</w>": 2431,
  "بہتر</w>": 2432,
  "hove</w>": 2433,
  "ruk</w>": 2434,
  "daava</w>": 2435,
  "marna</w>": 2436,
  "khulta</w>": 2437,
  "ہجراں</w>": 2438,
  "hijran</w>": 2439,
  "kuche</w>": 2440,
  "rat-": 2441,
  "جتنا</w>": 2442,
  "ida</w>": 2443,
  "کیجیے</w>": 2444,
  "قبول</w>": 2445,
  "qubul</w>": 2446,
  "ویرانی</w>": 2447,
  "jauhar-e-": 2448,
  "دشمنی</w>": 2449,
  "dushmani</w>": 2450,
  "rukhsat</w>": 2451,
  "بکھ": 2452,
  "پہچان</w>": 2453,
  "pahchan</w>": 2454,
  "لیجئے</w>": 2455,
  "lijiye</w>": 2456,
  "دینے</w>": 2457,
  "dene</w>": 2458,
  "khinch": 2459,
  "gard-e-": 2460,
  "inkar</w>": 2461,
  "thahra</w>": 2462,
  "tuk": 2463,
  "غل</w>": 2464,
  "جذب</w>": 2465,
  "شباب</w>": 2466,
  "qissa</w>": 2467,
  "نشہ</w>": 2468,
  "hujum-e-": 2469,
  "barq</w>": 2470,
  "aish</w>": 2471,
  "muntazir</w>": 2472,
  "حور</w>": 2473,
  "bu-e-": 2474,
  "avval</w>": 2475,
  "shab-e-gham</w>": 2476,
  "rau</w>": 2477,
  "لینے</w>": 2478,
  "lene</w>": 2479,
  "فسانہ</w>": 2480,
  "کلام</w>": 2481,
  "talvar</w>": 2482,
  "shahid-e-": 2483,
  "parva</w>": 2484,
  "رسوا</w>": 2485,
  "rusva</w>": 2486,
  "جانب</w>": 2487,
  "umiid</w>": 2488,
  "kat": 2489,
  "سوؤں</w>": 2490,
  "suon</w>": 2491,
  "شمار</w>": 2492,
  "ummi": 2493,
  "barg-e-": 2494,
  "واہ</w>": 2495,
  "کوچۂ</w>": 2496,
  "kae": 2497,
  "قابل</w>": 2498,
  "pech": 2499,
  "halqa": 2500,
  "درس</w>": 2501,
  "biga": 2502,
  "گداز</w>": 2503,
  "نشی": 2504,
  "شرر</w>": 2505,
  "وگرنہ</w>": 2506,
  "vagar": 2507,
  "vagarna</w>": 2508,
  "فرق</w>": 2509,
  "nuur</w>": 2510,
  "لح": 2511,
  "تہذی": 2512,
  "z-": 2513,
  "ختم</w>": 2514,
  "manind</w>": 2515,
  "bandha</w>": 2516,
  "بش</w>": 2517,
  "thikana</w>": 2518,
  "روتے</w>": 2519,
  "rote</w>": 2520,
  "behtar</w>": 2521,
  "عاشقی</w>": 2522,
  "bosa</w>": 2523,
  "مائل</w>": 2524,
  "nama-bar</w>": 2525,
  "پوچھا</w>": 2526,
  "باہ</w>": 2527,
  "لخت</w>": 2528,
  "rashk-e-": 2529,
  "fat-e-": 2530,
  "پوچھتے</w>": 2531,
  "puchhte</w>": 2532,
  "digar</w>": 2533,
  "خمار</w>": 2534,
  "بتاں</w>": 2535,
  "مجھی</w>": 2536,
  "mujhi</w>": 2537,
  "dhund": 2538,
  "پس</w>": 2539,
  "ret</w>": 2540,
  "sanna": 2541,
  "شجر</w>": 2542,
  "atish-": 2543,
  "لفظ</w>": 2544,
  "sh-": 2545,
  "dar-o-divar</w>": 2546,
  "gi-e-": 2547,
  "نمک</w>": 2548,
  "ٹپ": 2549,
  "وعدے</w>": 2550,
  "خوبی</w>": 2551,
  "pyaas</w>": 2552,
  "dhoka</w>": 2553,
  "مکان</w>": 2554,
  "تھوڑی</w>": 2555,
  "thodi</w>": 2556,
  "ضرور</w>": 2557,
  "لبوں</w>": 2558,
  "نکلتے</w>": 2559,
  "ویسے</w>": 2560,
  "چکی</w>": 2561,
  "کبھو</w>": 2562,
  "kabhu</w>": 2563,
  "thahre</w>": 2564,
  "نسیم</w>": 2565,
  "ahbab</w>": 2566,
  "کھن": 2567,
  "bij": 2568,
  "murad</w>": 2569,
  "بیتا": 2570,
  "taskin</w>": 2571,
  "harf-e-": 2572,
  "marta</w>": 2573,
  "na-ta": 2574,
  "کھلی</w>": 2575,
  "کشتی</w>": 2576,
  "tufan</w>": 2577,
  "ڑتے</w>": 2578,
  "ulj": 2579,
  "agh": 2580,
  "gardish</w>": 2581,
  "گزرا</w>": 2582,
  "guzra</w>": 2583,
  "گہی</w>": 2584,
  "ایجاد</w>": 2585,
  "dub": 2586,
  "فیق</w>": 2587,
  "siina</w>": 2588,
  "کائ": 2589,
  "کائنات</w>": 2590,
  "kaenat</w>": 2591,
  "pech-o-": 2592,
  "روزگار</w>": 2593,
  "rozgar</w>": 2594,
  "qud": 2595,
  "unhin</w>": 2596,
  "امتحاں</w>": 2597,
  "تہذیب</w>": 2598,
  "چھپ</w>": 2599,
  "جنبش</w>": 2600,
  "دین</w>": 2601,
  "laila</w>": 2602,
  "چاہیئے</w>": 2603,
  "abru</w>": 2604,
  "پے</w>": 2605,
  "پلٹ</w>": 2606,
  "badle</w>": 2607,
  "خطرہ</w>": 2608,
  "khatra</w>": 2609,
  "غنچہ</w>": 2610,
  "dushvar</w>": 2611,
  "rishta-e-": 2612,
  "zor</w>": 2613,
  "ایمان</w>": 2614,
  "ولے</w>": 2615,
  "تپ": 2616,
  "رونا</w>": 2617,
  "rona</w>": 2618,
  "fareb-e-": 2619,
  "mudda": 2620,
  "کوچے</w>": 2621,
  "اجنبی</w>": 2622,
  "ajnabi</w>": 2623,
  "چراغاں</w>": 2624,
  "ham-safar</w>": 2625,
  "کاغ": 2626,
  "تبسم</w>": 2627,
  "اظ": 2628,
  "اظہار</w>": 2629,
  "تسلی": 2630,
  "تسلیم</w>": 2631,
  "khatm</w>": 2632,
  "galiyon</w>": 2633,
  "ilzam</w>": 2634,
  "جاگ</w>": 2635,
  "لگتے</w>": 2636,
  "کہتی</w>": 2637,
  "kahti</w>": 2638,
  "utthe</w>": 2639,
  "سایۂ</w>": 2640,
  "begana</w>": 2641,
  "b-": 2642,
  "dushman-e-": 2643,
  "رحم</w>": 2644,
  "ju</w>": 2645,
  "rang-o-": 2646,
  "اجازت</w>": 2647,
  "الٰہی</w>": 2648,
  "yusuf</w>": 2649,
  "افسردہ</w>": 2650,
  "ننگ</w>": 2651,
  "شہید</w>": 2652,
  "جھوٹ</w>": 2653,
  "minna": 2654,
  "parvaz</w>": 2655,
  "aaegi</w>": 2656,
  "ڈوب</w>": 2657,
  "آگہی</w>": 2658,
  "جیسا</w>": 2659,
  "رفتار</w>": 2660,
  "سیل</w>": 2661,
  "پوچھتا</w>": 2662,
  "puchhta</w>": 2663,
  "کن": 2664,
  "mukh": 2665,
  "aine</w>": 2666,
  "mahtab</w>": 2667,
  "himmat</w>": 2668,
  "مرغ</w>": 2669,
  "h-": 2670,
  "nigar</w>": 2671,
  "dasht-e-": 2672,
  "احوال</w>": 2673,
  "farq</w>": 2674,
  "شمشیر</w>": 2675,
  "آغوش</w>": 2676,
  "ختہ</w>": 2677,
  "ru-ba-ru</w>": 2678,
  "arzu</w>": 2679,
  "زۂ</w>": 2680,
  "ذر</w>": 2681,
  "پردۂ</w>": 2682,
  "naqsh</w>": 2683,
  "qaid</w>": 2684,
  "گرمی</w>": 2685,
  "مبارک</w>": 2686,
  "mehman</w>": 2687,
  "chhup</w>": 2688,
  "باندھا</w>": 2689,
  "خود": 2690,
  "لیٰ</w>": 2691,
  "جینا</w>": 2692,
  "jiina</w>": 2693,
  "سرد</w>": 2694,
  "مسیحا</w>": 2695,
  "تد": 2696,
  "sitamgar</w>": 2697,
  "قم</w>": 2698,
  "iztirab</w>": 2699,
  "چڑھ": 2700,
  "sabz</w>": 2701,
  "عیب</w>": 2702,
  "aib</w>": 2703,
  "خشک</w>": 2704,
  "اشکوں</w>": 2705,
  "ashkon</w>": 2706,
  "بٹ</w>": 2707,
  "ٹیں</w>": 2708,
  "چراغ": 2709,
  "سلس": 2710,
  "aaega</w>": 2711,
  "طرۂ</w>": 2712,
  "مشتاق</w>": 2713,
  "مفت</w>": 2714,
  "ishq": 2715,
  "toh": 2716,
  "حریف</w>": 2717,
  "آرا</w>": 2718,
  "dad-e-": 2719,
  "عجز</w>": 2720,
  "کاغذ</w>": 2721,
  "دھوکا</w>": 2722,
  "لٹ": 2723,
  "رد</w>": 2724,
  "باندھتے</w>": 2725,
  "bandhte</w>": 2726,
  "کوشش</w>": 2727,
  "عہ</w>": 2728,
  "جتنے</w>": 2729,
  "ابھ": 2730,
  "ارمان</w>": 2731,
  "لمحہ</w>": 2732,
  "ضروری</w>": 2733,
  "khubi</w>": 2734,
  "زش</w>": 2735,
  "نظمؔ</w>": 2736,
  "'naz": 2737,
  "'nazm": 2738,
  "farhad</w>": 2739,
  "ٹوٹے</w>": 2740,
  "tuute</w>": 2741,
  "iqrar</w>": 2742,
  "shikast-e-": 2743,
  "ٹکڑے</w>": 2744,
  "tukde</w>": 2745,
  "مروت</w>": 2746,
  "mai-khana</w>": 2747,
  "شاہد</w>": 2748,
  "گردوں</w>": 2749,
  "mad": 2750,
  "isti": 2751,
  "shaguf": 2752,
  "ijazat</w>": 2753,
  "khalvat</w>": 2754,
  "فروغ</w>": 2755,
  "mai-kade</w>": 2756,
  "اغیار</w>": 2757,
  "aghyar</w>": 2758,
  "سرمہ</w>": 2759,
  "naqsh-e-pa</w>": 2760,
  "diid</w>": 2761,
  "nava-e-": 2762,
  "حادث": 2763,
  "mauj": 2764,
  "پشی": 2765,
  "تڑپ</w>": 2766,
  "سفی": 2767,
  "خاموشی</w>": 2768,
  "be-sabab</w>": 2769,
  "jhuut</w>": 2770,
  "be-qarari</w>": 2771,
  "qadr</w>": 2772,
  "vae</w>": 2773,
  "لپ": 2774,
  "halqa-e-": 2775,
  "حضور</w>": 2776,
  "garm-e-": 2777,
  "rind</w>": 2778,
  "dard-": 2779,
  "مصلح": 2780,
  "جر": 2781,
  "رف": 2782,
  "yad-e-": 2783,
  "ظل": 2784,
  "لیلیٰ</w>": 2785,
  "ashuf": 2786,
  "uj": 2787,
  "رقم</w>": 2788,
  "جۂ</w>": 2789,
  "خرمن</w>": 2790,
  "آئینے</w>": 2791,
  "dud-e-": 2792,
  "دیوانے</w>": 2793,
  "marte</w>": 2794,
  "صید</w>": 2795,
  "جگ</w>": 2796,
  "روزن</w>": 2797,
  "tasalli</w>": 2798,
  "band-e-": 2799,
  "سوچتا</w>": 2800,
  "sochta</w>": 2801,
  "پیڑ</w>": 2802,
  "ped</w>": 2803,
  "گھبرا</w>": 2804,
  "ghabra</w>": 2805,
  "ڈھل</w>": 2806,
  "وفائی</w>": 2807,
  "ربط</w>": 2808,
  "shor-e-": 2809,
  "پلکوں</w>": 2810,
  "palkon</w>": 2811,
  "زندگانی</w>": 2812,
  "sharmin": 2813,
  "harif-e-": 2814,
  "utna</w>": 2815,
  "برس</w>": 2816,
  "جبیں</w>": 2817,
  "vat-e-": 2818,
  "سنتا</w>": 2819,
  "sunta</w>": 2820,
  "fursat-e-": 2821,
  "mauj-e-sharab</w>": 2822,
  "ud": 2823,
  "be-kar</w>": 2824,
  "آغاز</w>": 2825,
  "صے</w>": 2826,
  "koshish</w>": 2827,
  "lamha</w>": 2828,
  "جدھر</w>": 2829,
  "اؤ</w>": 2830,
  "وو</w>": 2831,
  "ahista-": 2832,
  "qurban</w>": 2833,
  "بھولنے</w>": 2834,
  "bhulne</w>": 2835,
  "لتیں</w>": 2836,
  "آبرو</w>": 2837,
  "مسئ": 2838,
  "اٹھتے</w>": 2839,
  "uthte</w>": 2840,
  "zabt-e-": 2841,
  "ham-nashin</w>": 2842,
  "doston</w>": 2843,
  "جھکا</w>": 2844,
  "zakhm-e-jigar</w>": 2845,
  "kashti</w>": 2846,
  "rahm</w>": 2847,
  "gardun</w>": 2848,
  "sang-": 2849,
  "خرابی</w>": 2850,
  "pari-": 2851,
  "khalq</w>": 2852,
  "جمع</w>": 2853,
  "بشر</w>": 2854,
  "کفن</w>": 2855,
  "کیف</w>": 2856,
  "zad</w>": 2857,
  "بلند</w>": 2858,
  "shikva-e-": 2859,
  "اٹھی</w>": 2860,
  "رخسار</w>": 2861,
  "سل</w>": 2862,
  "shab-e-furqat</w>": 2863,
  "مسل": 2864,
  "'iq": 2865,
  "'iqbal": 2866,
  "غیرت</w>": 2867,
  "حلقۂ</w>": 2868,
  "shola-e-": 2869,
  "nava</w>": 2870,
  "حسین</w>": 2871,
  "اب": 2872,
  "غنیمت</w>": 2873,
  "sozan</w>": 2874,
  "duaen</w>": 2875,
  "ze": 2876,
  "shokhi</w>": 2877,
  "مصلحت</w>": 2878,
  "khta</w>": 2879,
  "parda-": 2880,
  "تجلی</w>": 2881,
  "sukut-e-": 2882,
  "فقی": 2883,
  "مینا</w>": 2884,
  "jauhar</w>": 2885,
  "آزما</w>": 2886,
  "بیت</w>": 2887,
  "پھرتا</w>": 2888,
  "phirta</w>": 2889,
  "ghaflat</w>": 2890,
  "سود</w>": 2891,
  "beja</w>": 2892,
  "bait": 2893,
  "kohkan</w>": 2894,
  "dard-e-dil</w>": 2895,
  "sard</w>": 2896,
  "takli": 2897,
  "bistar</w>": 2898,
  "رشتہ</w>": 2899,
  "rishta</w>": 2900,
  "تدبیر</w>": 2901,
  "tadbir</w>": 2902,
  "bhed</w>": 2903,
  "رشتۂ</w>": 2904,
  "آنسوؤں</w>": 2905,
  "ansuon</w>": 2906,
  "shakl</w>": 2907,
  "mast-e-": 2908,
  "بقا</w>": 2909,
  "تپش</w>": 2910,
  "آہٹ</w>": 2911,
  "نصیرؔ</w>": 2912,
  "'nasir": 2913,
  "'nasir'</w>": 2914,
  "ij": 2915,
  "بتیں</w>": 2916,
  "قع</w>": 2917,
  "سناٹا</w>": 2918,
  "sannata</w>": 2919,
  "bevafai</w>": 2920,
  "muft</w>": 2921,
  "qadr-e-": 2922,
  "zindagani</w>": 2923,
  "بیکسی</w>": 2924,
  "je": 2925,
  "وجہ</w>": 2926,
  "روتا</w>": 2927,
  "rota</w>": 2928,
  "do-alam</w>": 2929,
  "عنای": 2930,
  "bujh": 2931,
  "rae</w>": 2932,
  "نظریں</w>": 2933,
  "nazren</w>": 2934,
  "upar</w>": 2935,
  "لمحے</w>": 2936,
  "lamhe</w>": 2937,
  "ahista-ahista</w>": 2938,
  "jhan": 2939,
  "قربان</w>": 2940,
  "نشے</w>": 2941,
  "غیروں</w>": 2942,
  "پئے</w>": 2943,
  "باعث</w>": 2944,
  "be-asar</w>": 2945,
  "بتلا</w>": 2946,
  "jhon": 2947,
  "vahm</w>": 2948,
  "احتیا": 2949,
  "سنبھل</w>": 2950,
  "رقص</w>": 2951,
  "کفر</w>": 2952,
  "kuf": 2953,
  "kufr</w>": 2954,
  "وداع</w>": 2955,
  "khvah</w>": 2956,
  "موتی</w>": 2957,
  "moti</w>": 2958,
  "طع": 2959,
  "marg-e-": 2960,
  "رحمت</w>": 2961,
  "farogh-e-": 2962,
  "kta</w>": 2963,
  "حہ</w>": 2964,
  "بیدار</w>": 2965,
  "bedar</w>": 2966,
  "big": 2967,
  "dastan-e-": 2968,
  "آسمان</w>": 2969,
  "tif": 2970,
  "پرس": 2971,
  "پرسش</w>": 2972,
  "حکم</w>": 2973,
  "dil-lagi</w>": 2974,
  "sadgi</w>": 2975,
  "bat": 2976,
  "اٹھتی</w>": 2977,
  "uthti</w>": 2978,
  "کٹ": 2979,
  "قل": 2980,
  "اقبال": 2981,
  "اقبالؔ</w>": 2982,
  "'iqbal'</w>": 2983,
  "ٹوٹا</w>": 2984,
  "tuuta</w>": 2985,
  "guftar</w>": 2986,
  "مود</w>": 2987,
  "عمل</w>": 2988,
  "شکستہ</w>": 2989,
  "اشعار</w>": 2990,
  "وسعت</w>": 2991,
  "بڑھا</w>": 2992,
  "iyan</w>": 2993,
  "زو": 2994,
  "sai-e-": 2995,
  "tajalli</w>": 2996,
  "jave": 2997,
  "سما</w>": 2998,
  "غلط</w>": 2999,
  "لباس</w>": 3000,
  "اعجاز</w>": 3001,
  "خدائی</w>": 3002,
  "کھلتے</w>": 3003,
  "مسجد</w>": 3004,
  "masjid</w>": 3005,
  "ba-juz</w>": 3006,
  "mubarak</w>": 3007,
  "barham</w>": 3008,
  "ظلمت</w>": 3009,
  "دگر</w>": 3010,
  "khez</w>": 3011,
  "ویراں</w>": 3012,
  "sifat</w>": 3013,
  "خیز</w>": 3014,
  "murgh-e-": 3015,
  "پھولوں</w>": 3016,
  "شرط</w>": 3017,
  "v-": 3018,
  "سیاہ</w>": 3019,
  "siyah-": 3020,
  "تکلیف</w>": 3021,
  "طبع</w>": 3022,
  "ghuncha</w>": 3023,
  "nashsha-e-": 3024,
  "sohbat</w>": 3025,
  "masiha</w>": 3026,
  "minnat-e-": 3027,
  "بھید</w>": 3028,
  "kamyab</w>": 3029,
  "پھرے</w>": 3030,
  "ghuncha-e-": 3031,
  "کانٹوں</w>": 3032,
  "kanton</w>": 3033,
  "جل": 3034,
  "ba-rang-e-": 3035,
  "قے</w>": 3036,
  "زدہ</w>": 3037,
  "مدتوں</w>": 3038,
  "muddaton</w>": 3039,
  "lau</w>": 3040,
  "چراغوں</w>": 3041,
  "موڑ</w>": 3042,
  "mod</w>": 3043,
  "محبو": 3044,
  "ئیگاں</w>": 3045,
  "rae": 3046,
  "raegan</w>": 3047,
  "qarz</w>": 3048,
  "نسبت</w>": 3049,
  "عشاق</w>": 3050,
  "ushshaq</w>": 3051,
  "hal-e-dil</w>": 3052,
  "dava-e-": 3053,
  "ڈال</w>": 3054,
  "afsurda</w>": 3055,
  "کھائی</w>": 3056,
  "الت": 3057,
  "مانع</w>": 3058,
  "خاص</w>": 3059,
  "fasl-e-gul</w>": 3060,
  "اٹھیں</w>": 3061,
  "کھڑے</w>": 3062,
  "آزمائش</w>": 3063,
  "azmaish</w>": 3064,
  "زرد</w>": 3065,
  "sar-ba-sar</w>": 3066,
  "bojh</w>": 3067,
  "صلے</w>": 3068,
  "کاروبار</w>": 3069,
  "tishna": 3070,
  "صف</w>": 3071,
  "ً</w>": 3072,
  "rahna</w>": 3073,
  "پگھ": 3074,
  "مذہ": 3075,
  "گتا</w>": 3076,
  "ehsas</w>": 3077,
  "yadon</w>": 3078,
  "khvabon</w>": 3079,
  "جشن</w>": 3080,
  "lagte</w>": 3081,
  "پڑتا</w>": 3082,
  "padta</w>": 3083,
  "ٹھکانا</w>": 3084,
  "be-ikhtiyar</w>": 3085,
  "سعی</w>": 3086,
  "مسئلہ</w>": 3087,
  "bijli</w>": 3088,
  "سبک</w>": 3089,
  "jazb-e-": 3090,
  "nashsha</w>": 3091,
  "f-o-": 3092,
  "کشتہ</w>": 3093,
  "kushta</w>": 3094,
  "مزے</w>": 3095,
  "زلفوں</w>": 3096,
  "zulfon</w>": 3097,
  "بھرا</w>": 3098,
  "riya</w>": 3099,
  "اشارے</w>": 3100,
  "فردا</w>": 3101,
  "farda</w>": 3102,
  "قاصد</w>": 3103,
  "شیشے</w>": 3104,
  "طوفان</w>": 3105,
  "rahmat</w>": 3106,
  "manind-e-": 3107,
  "محت": 3108,
  "بح": 3109,
  "divanon</w>": 3110,
  "حرص</w>": 3111,
  "طف": 3112,
  "سجدہ</w>": 3113,
  "rahzan</w>": 3114,
  "عشرت</w>": 3115,
  "چھاؤں</w>": 3116,
  "chhanv</w>": 3117,
  "یک": 3118,
  "غش</w>": 3119,
  "شکوۂ</w>": 3120,
  "کج</w>": 3121,
  "phen": 3122,
  "bol</w>": 3123,
  "ik": 3124,
  "ضرورت</w>": 3125,
  "افلاک</w>": 3126,
  "aflak</w>": 3127,
  "گلزار</w>": 3128,
  "کشم": 3129,
  "کشمکش</w>": 3130,
  "rasm-e-": 3131,
  "ابتدا</w>": 3132,
  "ibtida</w>": 3133,
  "تخت</w>": 3134,
  "musht-e-": 3135,
  "نمود</w>": 3136,
  "دفتر</w>": 3137,
  "گدا</w>": 3138,
  "rang-o-bu</w>": 3139,
  "جرأ": 3140,
  "غت</w>": 3141,
  "gosha-e-": 3142,
  "husn": 3143,
  "bharosa</w>": 3144,
  "niyaz</w>": 3145,
  "ڈھونڈ</w>": 3146,
  "تعمیر</w>": 3147,
  "صفا</w>": 3148,
  "سمجھتا</w>": 3149,
  "samajhta</w>": 3150,
  "tahzib</w>": 3151,
  "muam": 3152,
  "shoala</w>": 3153,
  "آشفتہ</w>": 3154,
  "عداو": 3155,
  "dast-o-": 3156,
  "مقصود</w>": 3157,
  "dusra</w>": 3158,
  "bal-o-par</w>": 3159,
  "ناشاد</w>": 3160,
  "badnam</w>": 3161,
  "dilru": 3162,
  "karni</w>": 3163,
  "جیسی</w>": 3164,
  "rukhsar</w>": 3165,
  "lakht-e-": 3166,
  "نشۂ</w>": 3167,
  "کھینچی</w>": 3168,
  "تلخ</w>": 3169,
  "نرم</w>": 3170,
  "چاہت</w>": 3171,
  "تھوڑا</w>": 3172,
  "thoda</w>": 3173,
  "آشنائی</w>": 3174,
  "ashnai</w>": 3175,
  "bii": 3176,
  "دگاں</w>": 3177,
  "طوفاں</w>": 3178,
  "نکہت</w>": 3179,
  "امتحان</w>": 3180,
  "آویں</w>": 3181,
  "ڑیں</w>": 3182,
  "qe</w>": 3183,
  "موئے</w>": 3184,
  "mu-e-": 3185,
  "رائیگاں</w>": 3186,
  "چلنا</w>": 3187,
  "کھڑا</w>": 3188,
  "shab-e-firaq</w>": 3189,
  "رنج": 3190,
  "نشتر</w>": 3191,
  "ارباب</w>": 3192,
  "arbab-e-": 3193,
  "khushk</w>": 3194,
  "ken</w>": 3195,
  "nisbat</w>": 3196,
  "raftar</w>": 3197,
  "lafz</w>": 3198,
  "طی</w>": 3199,
  "jha": 3200,
  "بساط</w>": 3201,
  "bekasi</w>": 3202,
  "ranj-e-": 3203,
  "خمو": 3204,
  "جذبۂ</w>": 3205,
  "jazba-e-": 3206,
  "نیرنگ</w>": 3207,
  "التفات</w>": 3208,
  "ائیے</w>": 3209,
  "قائل</w>": 3210,
  "ganva</w>": 3211,
  "zard</w>": 3212,
  "taslim</w>": 3213,
  "chhupa": 3214,
  "بتاؤں</w>": 3215,
  "عنایت</w>": 3216,
  "تشنگی</w>": 3217,
  "دیوانگی</w>": 3218,
  "qudrat</w>": 3219,
  "ہوئیں</w>": 3220,
  "ہنستے</w>": 3221,
  "hanste</w>": 3222,
  "عزت</w>": 3223,
  "inhin</w>": 3224,
  "مذہب</w>": 3225,
  "نین</w>": 3226,
  "tavaj": 3227,
  "tavajjo": 3228,
  "tavajjoh</w>": 3229,
  "سہارا</w>": 3230,
  "ubhar": 3231,
  "تباہ</w>": 3232,
  "زمانا</w>": 3233,
  "rez</w>": 3234,
  "'nazm'</w>": 3235,
  "پیچھے</w>": 3236,
  "pichhe</w>": 3237,
  "-e-dil</w>": 3238,
  "تسکیں</w>": 3239,
  "bais-e-": 3240,
  "کھڑ": 3241,
  "ثمر</w>": 3242,
  "mub": 3243,
  "مآ": 3244,
  "مآل</w>": 3245,
  "ورق</w>": 3246,
  "چلتے</w>": 3247,
  "aks</w>": 3248,
  "afsana</w>": 3249,
  "muhal</w>": 3250,
  "zunnar</w>": 3251,
  "پہنچ</w>": 3252,
  "pahunch</w>": 3253,
  "بھڑ": 3254,
  "gard</w>": 3255,
  "محتسب</w>": 3256,
  "mohtasib</w>": 3257,
  "کھینچ": 3258,
  "چھا</w>": 3259,
  "اص": 3260,
  "دیوانوں</w>": 3261,
  "صہ": 3262,
  "سمجھیں</w>": 3263,
  "عم</w>": 3264,
  "ha-": 3265,
  "چلتا</w>": 3266,
  "رض": 3267,
  "chalta</w>": 3268,
  "sajda</w>": 3269,
  "nargis</w>": 3270,
  "zakhmon</w>": 3271,
  "buland</w>": 3272,
  "afshan</w>": 3273,
  "دیئے</w>": 3274,
  "تحریر</w>": 3275,
  "bar-ha</w>": 3276,
  "مخت": 3277,
  "مختصر</w>": 3278,
  "mukhtasar</w>": 3279,
  "kaj-": 3280,
  "bole</w>": 3281,
  "رزق</w>": 3282,
  "جنس</w>": 3283,
  "چلتی</w>": 3284,
  "آفت</w>": 3285,
  "tilism-e-": 3286,
  "musalman</w>": 3287,
  "غلام</w>": 3288,
  "عین</w>": 3289,
  "مہتاب</w>": 3290,
  "چاہتے</w>": 3291,
  "chahte</w>": 3292,
  "فسوں</w>": 3293,
  "نیازی</w>": 3294,
  "be-niyazi</w>": 3295,
  "bad-guman</w>": 3296,
  "nigahi</w>": 3297,
  "طائ": 3298,
  "وضع</w>": 3299,
  "takrar</w>": 3300,
  "ٹنے</w>": 3301,
  "نماز</w>": 3302,
  "paigham</w>": 3303,
  "شیو": 3304,
  "شیوۂ</w>": 3305,
  "sheva-e-": 3306,
  "ayyam</w>": 3307,
  "anjum</w>": 3308,
  "جرأت</w>": 3309,
  "روبرو</w>": 3310,
  "گوشۂ</w>": 3311,
  "شناس</w>": 3312,
  "azma</w>": 3313,
  "maslahat</w>": 3314,
  "تذ": 3315,
  "دکھایا</w>": 3316,
  "کیفی": 3317,
  "kaifi": 3318,
  "سراغ</w>": 3319,
  "shoh": 3320,
  "محنت</w>": 3321,
  "maqsud</w>": 3322,
  "mashhur</w>": 3323,
  "بدنام</w>": 3324,
  "charkh</w>": 3325,
  "bakht</w>": 3326,
  "رونق</w>": 3327,
  "chashm-e-tar</w>": 3328,
  "اٹھایا</w>": 3329,
  "aks-e-": 3330,
  "arzu": 3331,
  "ba-zahir</w>": 3332,
  "shamshir</w>": 3333,
  "rakhna</w>": 3334,
  "dikhla</w>": 3335,
  "مژہ</w>": 3336,
  "ویسی</w>": 3337,
  "قائم</w>": 3338,
  "رہزن</w>": 3339,
  "dad-": 3340,
  "ٹھکانے</w>": 3341,
  "غنچۂ</w>": 3342,
  "biich</w>": 3343,
  "rahnuma</w>": 3344,
  "اخبار</w>": 3345,
  "akhbar</w>": 3346,
  "قیمت</w>": 3347,
  "چل": 3348,
  "گریزاں</w>": 3349,
  "gurezan</w>": 3350,
  "لمحوں</w>": 3351,
  "lamhon</w>": 3352,
  "محبتوں</w>": 3353,
  "mohabbaton</w>": 3354,
  "ایماں</w>": 3355,
  "chalna</w>": 3356,
  "bichh": 3357,
  "قطرۂ</w>": 3358,
  "qatra-e-": 3359,
  "dar-parda</w>": 3360,
  "ra-": 3361,
  "sabza</w>": 3362,
  "jaoge</w>": 3363,
  "سلام</w>": 3364,
  "صف": 3365,
  "نفرت</w>": 3366,
  "nafrat</w>": 3367,
  "ستگی</w>": 3368,
  "zoaf</w>": 3369,
  "گمانی</w>": 3370,
  "betabi</w>": 3371,
  "دعو": 3372,
  "diida</w>": 3373,
  "uzr</w>": 3374,
  "jyuun</w>": 3375,
  "batao</w>": 3376,
  "rag</w>": 3377,
  "غربت</w>": 3378,
  "برسوں</w>": 3379,
  "barson</w>": 3380,
  "unvan</w>": 3381,
  "یقی": 3382,
  "huiin</w>": 3383,
  "جھی": 3384,
  "mazhab</w>": 3385,
  "اندھیرے</w>": 3386,
  "andhere</w>": 3387,
  "جگا</w>": 3388,
  "نئیں</w>": 3389,
  "naiin</w>": 3390,
  "جھل": 3391,
  "chuur</w>": 3392,
  "roya</w>": 3393,
  "پہلی</w>": 3394,
  "pahli</w>": 3395,
  "pyasa</w>": 3396,
  "روٹھ</w>": 3397,
  "likhna</w>": 3398,
  "iyega</w>": 3399,
  "کھلتیں</w>": 3400,
  "khultin</w>": 3401,
  "bahr</w>": 3402,
  "sambhal": 3403,
  "akasr</w>": 3404,
  "pae": 3405,
  "nikli</w>": 3406,
  "سماں</w>": 3407,
  "likkha</w>": 3408,
  "مبتلا</w>": 3409,
  "پیری</w>": 3410,
  "پیمانہ</w>": 3411,
  "bandh</w>": 3412,
  "mai-kada</w>": 3413,
  "mastana</w>": 3414,
  "غم": 3415,
  "chhup": 3416,
  "میل</w>": 3417,
  "قافلہ</w>": 3418,
  "روٹھ": 3419,
  "بحث</w>": 3420,
  "پتے</w>": 3421,
  "ہشیار</w>": 3422,
  "samjhen</w>": 3423,
  "bulbul-e-": 3424,
  "pichh": 3425,
  "وج": 3426,
  "تیرگی</w>": 3427,
  "tirgi</w>": 3428,
  "پشیماں</w>": 3429,
  "pasheman</w>": 3430,
  "jallad</w>": 3431,
  "بخشا</w>": 3432,
  "bakhsha</w>": 3433,
  "tahrir</w>": 3434,
  "betab</w>": 3435,
  "بہشت</w>": 3436,
  "خانماں</w>": 3437,
  "khvan</w>": 3438,
  "ضمیر</w>": 3439,
  "عیسی": 3440,
  "عیسیٰ</w>": 3441,
  "chalti</w>": 3442,
  "shakh-e-gul</w>": 3443,
  "ziist</w>": 3444,
  "توفیق</w>": 3445,
  "مسلماں</w>": 3446,
  "mai-khane</w>": 3447,
  "khirad</w>": 3448,
  "بود</w>": 3449,
  "کرشمہ</w>": 3450,
  "راہی</w>": 3451,
  "قافلے</w>": 3452,
  "گیسوئے</w>": 3453,
  "gesu-e-": 3454,
  "mand</w>": 3455,
  "bho": 3456,
  "aaiin</w>": 3457,
  "qai": 3458,
  "huur</w>": 3459,
  "aish-e-": 3460,
  "حدی": 3461,
  "bigad</w>": 3462,
  "sukhan": 3463,
  "sukhan-": 3464,
  "ahl-e-nazar</w>": 3465,
  "یہیں</w>": 3466,
  "سلیقہ</w>": 3467,
  "پاگل</w>": 3468,
  "pagal</w>": 3469,
  "rasm</w>": 3470,
  "غو": 3471,
  "طہ</w>": 3472,
  "آرا": 3473,
  "dair</w>": 3474,
  "سینۂ</w>": 3475,
  "baith": 3476,
  "پریشانی</w>": 3477,
  "ashufta-": 3478,
  "mehnat</w>": 3479,
  "عداوت</w>": 3480,
  "ahval</w>": 3481,
  "پریشان</w>": 3482,
  "garm-": 3483,
  "چھین</w>": 3484,
  "بظاہر</w>": 3485,
  "چھڑ": 3486,
  "لاش</w>": 3487,
  "پھرتی</w>": 3488,
  "phirti</w>": 3489,
  "narm</w>": 3490,
  "mahram</w>": 3491,
  "charkh-e-": 3492,
  "uun</w>": 3493,
  "ban-": 3494,
  "said-e-": 3495,
  "منظور</w>": 3496,
  "manzur</w>": 3497,
  "انتخاب</w>": 3498,
  "دروازہ</w>": 3499,
  "darvaza</w>": 3500,
  "تشنۂ</w>": 3501,
  "بتائے</w>": 3502,
  "batae</w>": 3503,
  "باغ": 3504,
  "دیجئے</w>": 3505,
  "avenge</w>": 3506,
  "shirin-": 3507,
  "دلبر</w>": 3508,
  "khid": 3509,
  "guzarne</w>": 3510,
  "محبوب</w>": 3511,
  "gauhar</w>": 3512,
  "ریزہ</w>": 3513,
  "ishq-o-": 3514,
  "ba-qadr-e-": 3515,
  "nadim</w>": 3516,
  "be-dili</w>": 3517,
  "جھگ": 3518,
  "jalva-e-gul</w>": 3519,
  "زبانی</w>": 3520,
  "وق": 3521,
  "tuuti</w>": 3522,
  "sivae</w>": 3523,
  "کث": 3524,
  "دعوت</w>": 3525,
  "پشت</w>": 3526,
  "خیٔ</w>": 3527,
  "divar-e-": 3528,
  "arz</w>": 3529,
  "نب": 3530,
  "نبض</w>": 3531,
  "mashq-e-": 3532,
  "گہہ</w>": 3533,
  "نگۂ</w>": 3534,
  "parta": 3535,
  "شتہ</w>": 3536,
  "بتاؤ</w>": 3537,
  "suva": 3538,
  "gulzar</w>": 3539,
  "بخش</w>": 3540,
  "نذر</w>": 3541,
  "guzarta</w>": 3542,
  "بنتی</w>": 3543,
  "banti</w>": 3544,
  "کم": 3545,
  "ناگ": 3546,
  "zarre</w>": 3547,
  "وحشی</w>": 3548,
  "پک": 3549,
  "ag": 3550,
  "bad-gumani</w>": 3551,
  "فائ": 3552,
  "fae": 3553,
  "یقین</w>": 3554,
  "laen</w>": 3555,
  "shid": 3556,
  "divangi</w>": 3557,
  "بازو</w>": 3558,
  "فقیروں</w>": 3559,
  "مہربانی</w>": 3560,
  "tabassum</w>": 3561,
  "und</w>": 3562,
  "تاریخ</w>": 3563,
  "گون": 3564,
  "سونا</w>": 3565,
  "اوپر</w>": 3566,
  "havaen</w>": 3567,
  "bhig": 3568,
  "کروٹ</w>": 3569,
  "karvat</w>": 3570,
  "چھل": 3571,
  "chhu</w>": 3572,
  "ہوتیں</w>": 3573,
  "hotin</w>": 3574,
  "حصے</w>": 3575,
  "hisse</w>": 3576,
  "beach</w>": 3577,
  "gaanv</w>": 3578,
  "انیس": 3579,
  "انیسؔ</w>": 3580,
  "'anis": 3581,
  "'anis'</w>": 3582,
  "paoge</w>": 3583,
  "معصو": 3584,
  "ناجیؔ</w>": 3585,
  "'naji": 3586,
  "'naji'</w>": 3587,
  "انگڑ": 3588,
  "ئق</w>": 3589,
  "la-makan</w>": 3590,
  "مکر</w>": 3591,
  "گھون": 3592,
  "avaz-e-": 3593,
  "ranj": 3594,
  "مہلت</w>": 3595,
  "iid</w>": 3596,
  "khub-": 3597,
  "احتیاط</w>": 3598,
  "vadi-e-": 3599,
  "طول</w>": 3600,
  "dariya-e-": 3601,
  "رسائی</w>": 3602,
  "ڈرتا</w>": 3603,
  "darta</w>": 3604,
  "uf": 3605,
  "chup": 3606,
  "سیلاب</w>": 3607,
  "zoh": 3608,
  "سیدھ": 3609,
  "مئے</w>": 3610,
  "ڈالا</w>": 3611,
  "surma</w>": 3612,
  "بیزار</w>": 3613,
  "be-parva</w>": 3614,
  "شیشۂ</w>": 3615,
  "saqiya</w>": 3616,
  "بینا</w>": 3617,
  "tan-": 3618,
  "gosh</w>": 3619,
  "برہمن</w>": 3620,
  "شفا</w>": 3621,
  "shifa</w>": 3622,
  "pursish</w>": 3623,
  "آشوب</w>": 3624,
  "وجد</w>": 3625,
  "parasti</w>": 3626,
  "khatt-e-": 3627,
  "قطع</w>": 3628,
  "mo'": 3629,
  "bahisht</w>": 3630,
  "fasla</w>": 3631,
  "حیف</w>": 3632,
  "دکھائے</w>": 3633,
  "soe</w>": 3634,
  "rizq</w>": 3635,
  "فق</w>": 3636,
  "mai-kashi</w>": 3637,
  "جہنم</w>": 3638,
  "آلو": 3639,
  "mard-e-": 3640,
  "faiz</w>": 3641,
  "ain-e-": 3642,
  "daulat-e-": 3643,
  "زد</w>": 3644,
  "soz-o-": 3645,
  "لشکر</w>": 3646,
  "maidan</w>": 3647,
  "نگاہی</w>": 3648,
  "dars-e-": 3649,
  "ashkar</w>": 3650,
  "shikasta</w>": 3651,
  "سوزن</w>": 3652,
  "امیدیں</w>": 3653,
  "نومی": 3654,
  "عتاب</w>": 3655,
  "tamanna-e-": 3656,
  "aghosh-e-": 3657,
  "astan</w>": 3658,
  "بگڑ</w>": 3659,
  "پیہم</w>": 3660,
  "paiham</w>": 3661,
  "خاشاک</w>": 3662,
  "تسخیر</w>": 3663,
  "uryan</w>": 3664,
  "فراغت</w>": 3665,
  "رکھتی</w>": 3666,
  "rakhti</w>": 3667,
  "husn-o-": 3668,
  "astin</w>": 3669,
  "dam-ba-dam</w>": 3670,
  "چر": 3671,
  "رہبر</w>": 3672,
  "طائر</w>": 3673,
  "مف": 3674,
  "dilli</w>": 3675,
  "بیگانے</w>": 3676,
  "begane</w>": 3677,
  "dil-e-be-": 3678,
  "ru-": 3679,
  "khud-kushi</w>": 3680,
  "کیفیت</w>": 3681,
  "tark</w>": 3682,
  "shohrat</w>": 3683,
  "مول</w>": 3684,
  "adavat</w>": 3685,
  "parsai</w>": 3686,
  "giraftar-e-": 3687,
  "takht</w>": 3688,
  "وبال</w>": 3689,
  "fitna-": 3690,
  "nigah-e-yar</w>": 3691,
  "ashk-": 3692,
  "ظرف</w>": 3693,
  "ناوک</w>": 3694,
  "khinchta</w>": 3695,
  "رعنا</w>": 3696,
  "sarv-e-": 3697,
  "ulfat-e-": 3698,
  "do-char</w>": 3699,
  "panja-e-": 3700,
  "nau</w>": 3701,
  "مہک</w>": 3702,
  "قہر</w>": 3703,
  "chalne</w>": 3704,
  "لچ": 3705,
  "mu</w>": 3706,
  "غارت</w>": 3707,
  "حیران</w>": 3708,
  "فخر</w>": 3709,
  "ثواب</w>": 3710,
  "gham-e-ishq</w>": 3711,
  "دھیان</w>": 3712,
  "dhyan</w>": 3713,
  "اجڑے</w>": 3714,
  "ujde</w>": 3715,
  "baghban</w>": 3716,
  "دفن</w>": 3717,
  "dafn</w>": 3718,
  "آزر": 3719,
  "ٹی": 3720,
  "be-takalluf</w>": 3721,
  "rifaqat</w>": 3722,
  "رشتے</w>": 3723,
  "rishte</w>": 3724,
  "andhi": 3725,
  "صلی": 3726,
  "سلسلہ</w>": 3727,
  "silsila</w>": 3728,
  "آؤں</w>": 3729,
  "آبلہ</w>": 3730,
  "منسو": 3731,
  "منسوب</w>": 3732,
  "mansub</w>": 3733,
  "reza</w>": 3734,
  "دھول</w>": 3735,
  "mushtaq</w>": 3736,
  "sar-ta-": 3737,
  "خمیا": 3738,
  "sahra-e-": 3739,
  "dildar</w>": 3740,
  "فشانی</w>": 3741,
  "i-e-": 3742,
  "زینت</w>": 3743,
  "خریدار</w>": 3744,
  "انگشت</w>": 3745,
  "شعلے</w>": 3746,
  "طالع</w>": 3747,
  "shua": 3748,
  "معشوق</w>": 3749,
  "قدح</w>": 3750,
  "کثرت</w>": 3751,
  "khirman</w>": 3752,
  "dhoke</w>": 3753,
  "خموشی</w>": 3754,
  "خلش</w>": 3755,
  "شوخیٔ</w>": 3756,
  "naqsh-e-qadam</w>": 3757,
  "sat": 3758,
  "نع": 3759,
  "nairang-e-": 3760,
  "پرتو</w>": 3761,
  "پیرا": 3762,
  "پیراہن</w>": 3763,
  "ثبات</w>": 3764,
  "gham-e-yar</w>": 3765,
  "اشارہ</w>": 3766,
  "bakhsh</w>": 3767,
  "izhar-e-": 3768,
  "گزرتا</w>": 3769,
  "qaae": 3770,
  "na-gahan</w>": 3771,
  "ذرے</w>": 3772,
  "دیواروں</w>": 3773,
  "divaron</w>": 3774,
  "ghurbat</w>": 3775,
  "vahshi</w>": 3776,
  "sohbat-e-": 3777,
  "majlis</w>": 3778,
  "پیمان</w>": 3779,
  "شرمندہ</w>": 3780,
  "چھپائے</w>": 3781,
  "نجات</w>": 3782,
  "nigah-e-shauq</w>": 3783,
  "واقعہ</w>": 3784,
  "vaqia</w>": 3785,
  "شدت</w>": 3786,
  "سون": 3787,
  "rabt</w>": 3788,
  "گمان</w>": 3789,
  "رنجش</w>": 3790,
  "رقیبوں</w>": 3791,
  "bh": 3792,
  "بھرم</w>": 3793,
  "chehron</w>": 3794,
  "قبر</w>": 3795,
  "جیون</w>": 3796,
  "jivan</w>": 3797,
  "izzat</w>": 3798,
  "سڑ": 3799,
  "siyasat</w>": 3800,
  "پتھ": 3801,
  "دھی": 3802,
  "uupar</w>": 3803,
  "آنچل</w>": 3804,
  "anchal</w>": 3805,
  "لفظ": 3806,
  "لفظوں</w>": 3807,
  "lafzon</w>": 3808,
  "قدموں</w>": 3809,
  "qadmon</w>": 3810,
  "چونک</w>": 3811,
  "chaunk</w>": 3812,
  "utarta</w>": 3813,
  "mehrbani</w>": 3814,
  "sanvar": 3815,
  "ahl-e-vafa</w>": 3816,
  "mahsus</w>": 3817,
  "جون": 3818,
  "جونؔ</w>": 3819,
  "'jaun": 3820,
  "eid</w>": 3821,
  "لڑکا</w>": 3822,
  "ladka</w>": 3823,
  "zinhar</w>": 3824,
  "جبر</w>": 3825,
  "van-": 3826,
  "کھیت</w>": 3827,
  "khet</w>": 3828,
  "شیدا</w>": 3829,
  "توڑا</w>": 3830,
  "toda</w>": 3831,
  "بک</w>": 3832,
  "ranj-o-": 3833,
  "مغاں</w>": 3834,
  "mughan</w>": 3835,
  "mohlat</w>": 3836,
  "mubtala</w>": 3837,
  "جھونکا</w>": 3838,
  "jhonka</w>": 3839,
  "na-tavan</w>": 3840,
  "himmat-e-": 3841,
  "sabza-e-": 3842,
  "کوتا": 3843,
  "sang-dil</w>": 3844,
  "rah-rau</w>": 3845,
  "خطر</w>": 3846,
  "گیسو</w>": 3847,
  "gesu</w>": 3848,
  "سیکڑوں</w>": 3849,
  "کیجئے</w>": 3850,
  "صہبا</w>": 3851,
  "sahba</w>": 3852,
  "taajjub</w>": 3853,
  "haivan</w>": 3854,
  "ہمہ</w>": 3855,
  "فردوس</w>": 3856,
  "barhaman</w>": 3857,
  "asiir</w>": 3858,
  "lala-o-gul</w>": 3859,
  "shef": 3860,
  "روداد</w>": 3861,
  "کنج</w>": 3862,
  "kunj-e-": 3863,
  "rihai</w>": 3864,
  "دوزخ</w>": 3865,
  "dozakh</w>": 3866,
  "ungliyan</w>": 3867,
  "arsh</w>": 3868,
  "rahbar</w>": 3869,
  "niklen</w>": 3870,
  "haif</w>": 3871,
  "پیشتر</w>": 3872,
  "عطا</w>": 3873,
  "ata</w>": 3874,
  "تیٔ</w>": 3875,
  "مرحبا</w>": 3876,
  "marhaba</w>": 3877,
  "رسا</w>": 3878,
  "za-": 3879,
  "ثابت</w>": 3880,
  "jahannam</w>": 3881,
  "شغل</w>": 3882,
  "ulajh": 3883,
  "فرشتوں</w>": 3884,
  "farishton</w>": 3885,
  "hasti-e-": 3886,
  "دانش</w>": 3887,
  "musht-e-khak</w>": 3888,
  "اذ": 3889,
  "محیط</w>": 3890,
  "be-karan</w>": 3891,
  "gauhar-e-": 3892,
  "naghma-e-": 3893,
  "بٹھ": 3894,
  "dostan</w>": 3895,
  "vusat-e-": 3896,
  "دلبری</w>": 3897,
  "راز": 3898,
  "daftar</w>": 3899,
  "حدیث</w>": 3900,
  "azadi</w>": 3901,
  "uzr-e-": 3902,
  "جولاں</w>": 3903,
  "مئ</w>": 3904,
  "رفو</w>": 3905,
  "rafu</w>": 3906,
  "bih</w>": 3907,
  "بھروسا</w>": 3908,
  "بین</w>": 3909,
  "mahram-e-": 3910,
  "jurm-e-": 3911,
  "khana-kharab</w>": 3912,
  "شنا</w>": 3913,
  "پہچانے</w>": 3914,
  "pahchane</w>": 3915,
  "نگہ": 3916,
  "at": 3917,
  "haq-": 3918,
  "دھرا</w>": 3919,
  "غنچے</w>": 3920,
  "ghunche</w>": 3921,
  "مجبور</w>": 3922,
  "کلا": 3923,
  "پیتے</w>": 3924,
  "piite</w>": 3925,
  "tiyon</w>": 3926,
  "jumbish</w>": 3927,
  "مکر": 3928,
  "mukar": 3929,
  "pareshani</w>": 3930,
  "سوختہ</w>": 3931,
  "mol</w>": 3932,
  "gham-khvar</w>": 3933,
  "سننے</w>": 3934,
  "پیماں</w>": 3935,
  "ڈھونڈا</w>": 3936,
  "خاکساری</w>": 3937,
  "khaksari</w>": 3938,
  "bedad</w>": 3939,
  "کیونکہ</w>": 3940,
  "kyunki</w>": 3941,
  "لوک</w>": 3942,
  "ربا</w>": 3943,
  "taklif</w>": 3944,
  "gham-kh": 3945,
  "shakl-e-": 3946,
  "سوتے</w>": 3947,
  "sote</w>": 3948,
  "taqrir</w>": 3949,
  "ghamza</w>": 3950,
  "جتنی</w>": 3951,
  "parastish</w>": 3952,
  "دائم</w>": 3953,
  "ووں</w>": 3954,
  "vuun</w>": 3955,
  "saaat</w>": 3956,
  "پیشہ</w>": 3957,
  "گتے</w>": 3958,
  "نسخ": 3959,
  "پھرا</w>": 3960,
  "khun-e-jigar</w>": 3961,
  "فہم</w>": 3962,
  "حاجت</w>": 3963,
  "باغباں</w>": 3964,
  "ku-e-yar</w>": 3965,
  "arsa-e-": 3966,
  "be-hijab</w>": 3967,
  "uchhal</w>": 3968,
  "سنج</w>": 3969,
  "dilbar</w>": 3970,
  "ruk": 3971,
  "bol": 3972,
  "پھن": 3973,
  "چشمۂ</w>": 3974,
  "chashma-e-": 3975,
  "an-": 3976,
  "lahje</w>": 3977,
  "گزرنے</w>": 3978,
  "supur": 3979,
  "andhiyon</w>": 3980,
  "عنوان</w>": 3981,
  "mahbu": 3982,
  "اندھیروں</w>": 3983,
  "andheron</w>": 3984,
  "raston</w>": 3985,
  "tavaq": 3986,
  "tavaqq": 3987,
  "انگڑائی</w>": 3988,
  "angdai</w>": 3989,
  "پاش</w>": 3990,
  "میٔ</w>": 3991,
  "imkan</w>": 3992,
  "pesh-": 3993,
  "jalta</w>": 3994,
  "ہت</w>": 3995,
  "خلد</w>": 3996,
  "khuld</w>": 3997,
  "zanjir-e-": 3998,
  "vajh-e-": 3999,
  "برسات</w>": 4000,
  "barsat</w>": 4001,
  "نزدیک</w>": 4002,
  "khud-ara</w>": 4003,
  "dna</w>": 4004,
  "nazzara</w>": 4005,
  "خستہ</w>": 4006,
  "دھوکے</w>": 4007,
  "جاوید</w>": 4008,
  "javed</w>": 4009,
  "ناچار</w>": 4010,
  "دنداں</w>": 4011,
  "عرق</w>": 4012,
  "اٹھانے</w>": 4013,
  "حواد": 4014,
  "حوادث</w>": 4015,
  "havadis</w>": 4016,
  "sarf-e-": 4017,
  "gashta</w>": 4018,
  "sarv</w>": 4019,
  "qaail</w>": 4020,
  "تسکی": 4021,
  "تسکین</w>": 4022,
  "izhar</w>": 4023,
  "مصرو": 4024,
  "حواس</w>": 4025,
  "sham-e-gham</w>": 4026,
  "شائ": 4027,
  "مژگان</w>": 4028,
  "mizhgan-e-": 4029,
  "vafa-": 4030,
  "آیا</w>": 4031,
  "divar-o-": 4032,
  "divar-o-dar</w>": 4033,
  "sharminda</w>": 4034,
  "فائدہ</w>": 4035,
  "faeda</w>": 4036,
  "tohmat</w>": 4037,
  "قول</w>": 4038,
  "افسانے</w>": 4039,
  "afsane</w>": 4040,
  "شرما</w>": 4041,
  "sharma</w>": 4042,
  "خیمے</w>": 4043,
  "kheme</w>": 4044,
  "طق</w>": 4045,
  "ubh": 4046,
  "khoe</w>": 4047,
  "بوند</w>": 4048,
  "buund</w>": 4049,
  "zulfen</w>": 4050,
  "راہوں</w>": 4051,
  "اکیلے</w>": 4052,
  "pyari</w>": 4053,
  "shaeri</w>": 4054,
  "گھروں</w>": 4055,
  "پھیل</w>": 4056,
  "بھلی</w>": 4057,
  "sen</w>": 4058,
  "جیت</w>": 4059,
  "jiit</w>": 4060,
  "بہتے</w>": 4061,
  "bahte</w>": 4062,
  "ماضی</w>": 4063,
  "نظم</w>": 4064,
  "alfaz</w>": 4065,
  "doh": 4066,
  "بھیجی</w>": 4067,
  "bheji</w>": 4068,
  "asrar</w>": 4069,
  "buujh</w>": 4070,
  "talkh</w>": 4071,
  "zulmat</w>": 4072,
  "فسانے</w>": 4073,
  "ahd-e-vafa</w>": 4074,
  "خواہشوں</w>": 4075,
  "khvahishon</w>": 4076,
  "hu</w>": 4077,
  "بانہوں</w>": 4078,
  "banhon</w>": 4079,
  "زمینوں</w>": 4080,
  "حسینوں</w>": 4081,
  "جذبات</w>": 4082,
  "jazbat</w>": 4083,
  "چوٹ</w>": 4084,
  "chot</w>": 4085,
  "pyase</w>": 4086,
  "bad-e-saba</w>": 4087,
  "ارماں</w>": 4088,
  "pachhta": 4089,
  "'jaun'</w>": 4090,
  "مصحفی": 4091,
  "مصحفیؔ</w>": 4092,
  "'mushafi": 4093,
  "'mushafi'</w>": 4094,
  "خطرے</w>": 4095,
  "khatre</w>": 4096,
  "kaif</w>": 4097,
  "معصوم</w>": 4098,
  "iyon</w>": 4099,
  "سمی": 4100,
  "کھنچ": 4101,
  "بریز</w>": 4102,
  "jam-e-mai</w>": 4103,
  "مطرب</w>": 4104,
  "ولولے</w>": 4105,
  "valvale</w>": 4106,
  "naghme</w>": 4107,
  "شد</w>": 4108,
  "روئیں</w>": 4109,
  "jalva-gar</w>": 4110,
  "سفاک</w>": 4111,
  "saffak</w>": 4112,
  "imtiyaz</w>": 4113,
  "نوید</w>": 4114,
  "nave": 4115,
  "ehtiyat</w>": 4116,
  "utra</w>": 4117,
  "raqs</w>": 4118,
  "ویرانہ</w>": 4119,
  "بیم</w>": 4120,
  "vidaa</w>": 4121,
  "توبہ</w>": 4122,
  "tauba</w>": 4123,
  "مضموں</w>": 4124,
  "mazmun</w>": 4125,
  "محمل</w>": 4126,
  "مٹھی</w>": 4127,
  "mutthi</w>": 4128,
  "von</w>": 4129,
  "اندیش</w>": 4130,
  "andesh</w>": 4131,
  "بیٰ</w>": 4132,
  "اجڑ</w>": 4133,
  "chahne</w>": 4134,
  "غمگیں</w>": 4135,
  "پڑتی</w>": 4136,
  "padti</w>": 4137,
  "saikdon</w>": 4138,
  "طریق</w>": 4139,
  "آر": 4140,
  "dil-e-na-": 4141,
  "دبا</w>": 4142,
  "jigar-": 4143,
  "hausle</w>": 4144,
  "bezar</w>": 4145,
  "samjho</w>": 4146,
  "yad": 4147,
  "ڈھونڈھتا</w>": 4148,
  "dhundhta</w>": 4149,
  "tegh-": 4150,
  "عندلی": 4151,
  "عندلیب</w>": 4152,
  "rah-e-vafa</w>": 4153,
  "حادثہ</w>": 4154,
  "ٹھوکر</w>": 4155,
  "کھائے</w>": 4156,
  "thokar</w>": 4157,
  "vajd</w>": 4158,
  "آثار</w>": 4159,
  "افشاں</w>": 4160,
  "بھولا</w>": 4161,
  "موسیٰ</w>": 4162,
  "باش</w>": 4163,
  "خسرو</w>": 4164,
  "ham-zaban</w>": 4165,
  "dikhae</w>": 4166,
  "جاگے</w>": 4167,
  "مڑ</w>": 4168,
  "چھری</w>": 4169,
  "ستائش</w>": 4170,
  "fasl</w>": 4171,
  "nuqsan</w>": 4172,
  "کاٹے</w>": 4173,
  "پیمانے</w>": 4174,
  "bandi</w>": 4175,
  "خداو": 4176,
  "bandon</w>": 4177,
  "ذلت</w>": 4178,
  "عزم</w>": 4179,
  "اندیشہ</w>": 4180,
  "سلط": 4181,
  "سلطنت</w>": 4182,
  "میداں</w>": 4183,
  "نہای": 4184,
  "نہایت</w>": 4185,
  "muhit-e-": 4186,
  "hoshi": 4187,
  "بگڑ": 4188,
  "dta</w>": 4189,
  "نوک</w>": 4190,
  "نشیمن</w>": 4191,
  "nasheman</w>": 4192,
  "بیگانگی</w>": 4193,
  "hazrat</w>": 4194,
  "gulu</w>": 4195,
  "dilbari</w>": 4196,
  "گاہی</w>": 4197,
  "خدایا</w>": 4198,
  "فضائیں</w>": 4199,
  "fazaen</w>": 4200,
  "غرق</w>": 4201,
  "qaid-e-": 4202,
  "جزا</w>": 4203,
  "شوریدہ</w>": 4204,
  "تماشائے</w>": 4205,
  "subuk-": 4206,
  "parhe": 4207,
  "pech-o-kham</w>": 4208,
  "تسبی": 4209,
  "تسبیح</w>": 4210,
  "ہلاک</w>": 4211,
  "bech</w>": 4212,
  "محرومی</w>": 4213,
  "آں</w>": 4214,
  "if": 4215,
  "khoya</w>": 4216,
  "چرچا</w>": 4217,
  "charcha</w>": 4218,
  "nigah": 4219,
  "کباب</w>": 4220,
  "بخشے</w>": 4221,
  "bakhshe</w>": 4222,
  "samna</w>": 4223,
  "سیاہی</w>": 4224,
  "siyahi</w>": 4225,
  "ustu": 4226,
  "dukan</w>": 4227,
  "خودکشی</w>": 4228,
  "barg-e-gul</w>": 4229,
  "قمری</w>": 4230,
  "uttha</w>": 4231,
  "آرائش</w>": 4232,
  "حریم</w>": 4233,
  "نقشہ</w>": 4234,
  "مکرر</w>": 4235,
  "mukarrar</w>": 4236,
  "shart-e-": 4237,
  "sarshar</w>": 4238,
  "خبری</w>": 4239,
  "be-khabari</w>": 4240,
  "gham-e-furqat</w>": 4241,
  "sunne</w>": 4242,
  "na-ashna</w>": 4243,
  "انصاف</w>": 4244,
  "nargis-e-": 4245,
  "karishma</w>": 4246,
  "گریۂ</w>": 4247,
  "girya-e-": 4248,
  "اٹھائی</w>": 4249,
  "naqsha</w>": 4250,
  "kaf-e-pa</w>": 4251,
  "بتاتے</w>": 4252,
  "نزع</w>": 4253,
  "bose</w>": 4254,
  "پنجۂ</w>": 4255,
  "qatre</w>": 4256,
  "daaim</w>": 4257,
  "گاہے</w>": 4258,
  "pesha</w>": 4259,
  "shiar</w>": 4260,
  "vasl-e-": 4261,
  "پھینک</w>": 4262,
  "phenk</w>": 4263,
  "ain</w>": 4264,
  "جوئی</w>": 4265,
  "سوئی</w>": 4266,
  "ربائی</w>": 4267,
  "ab-e-baqa</w>": 4268,
  "سیماب</w>": 4269,
  "fasl-e-bahar</w>": 4270,
  "pech-o-tab</w>": 4271,
  "عرص": 4272,
  "عرصۂ</w>": 4273,
  "dil-e-pur-": 4274,
  "pahchan": 4275,
  "زلیخا</w>": 4276,
  "واقف</w>": 4277,
  "chor</w>": 4278,
  "جھوٹا</w>": 4279,
  "تیرہ</w>": 4280,
  "ڈوبا</w>": 4281,
  "duuba</w>": 4282,
  "band-e-qaba</w>": 4283,
  "piya</w>": 4284,
  "تھکن</w>": 4285,
  "thakan</w>": 4286,
  "رشتوں</w>": 4287,
  "rishton</w>": 4288,
  "صلیب</w>": 4289,
  "نۂ</w>": 4290,
  "vahm-o-": 4291,
  "hamrah</w>": 4292,
  "halqe</w>": 4293,
  "مچل</w>": 4294,
  "مسیحائی</w>": 4295,
  "masihai</w>": 4296,
  "ائ": 4297,
  "گرمیٔ</w>": 4298,
  "کردہ</w>": 4299,
  "جاؤ</w>": 4300,
  "تح": 4301,
  "ruh-e-": 4302,
  "چن": 4303,
  "rakhne</w>": 4304,
  "تماشائی</w>": 4305,
  "لازم</w>": 4306,
  "'ghalib'-e-": 4307,
  "شبستاں</w>": 4308,
  "shabistan</w>": 4309,
  "uqda-e-": 4310,
  "jeb-e-": 4311,
  "dast-": 4312,
  "راضی</w>": 4313,
  "jumbish-e-": 4314,
  "صفح": 4315,
  "طوطی</w>": 4316,
  "anjuman-e-": 4317,
  "hasrat-": 4318,
  "nikalne</w>": 4319,
  "آئنے</w>": 4320,
  "shoale</w>": 4321,
  "iztirab-e-": 4322,
  "nazdik</w>": 4323,
  "روکے</w>": 4324,
  "roke</w>": 4325,
  "kharidar</w>": 4326,
  "sarv-": 4327,
  "ڈالی</w>": 4328,
  "mor</w>": 4329,
  "na-char</w>": 4330,
  "pusht-e-": 4331,
  "ijz</w>": 4332,
  "آفاق</w>": 4333,
  "اشارا</w>": 4334,
  "mushtaq-e-": 4335,
  "اسیری</w>": 4336,
  "parvaz-e-": 4337,
  "اٹھائیے</w>": 4338,
  "جاہ</w>": 4339,
  "nabz-e-": 4340,
  "partav-e-": 4341,
  "درباں</w>": 4342,
  "darban</w>": 4343,
  "گشتہ</w>": 4344,
  "tark-e-vafa</w>": 4345,
  "زم": 4346,
  "فشاں</w>": 4347,
  "لبی</w>": 4348,
  "tishna-labi</w>": 4349,
  "sharh-e-": 4350,
  "mausam-e-gul</w>": 4351,
  "gunahgar</w>": 4352,
  "kushta-e-": 4353,
  "سویدا</w>": 4354,
  "suvaida</w>": 4355,
  "khana-virani</w>": 4356,
  "ول</w>": 4357,
  "nazr-e-": 4358,
  "مصروف</w>": 4359,
  "shoala-e-": 4360,
  "مکیں</w>": 4361,
  "ناگہاں</w>": 4362,
  "ضو</w>": 4363,
  "junun-": 4364,
  "ٹھنڈ": 4365,
  "امیدی</w>": 4366,
  "be-sar-o-": 4367,
  "نم": 4368,
  "dil-o-jan</w>": 4369,
  "عنواں</w>": 4370,
  "hasrat-e-didar</w>": 4371,
  "افسردگی</w>": 4372,
  "karda</w>": 4373,
  "دیوان</w>": 4374,
  "badalne</w>": 4375,
  "دستار</w>": 4376,
  "karobar</w>": 4377,
  "jauhar-e-aina</w>": 4378,
  "farosh</w>": 4379,
  "moam": 4380,
  "moamla</w>": 4381,
  "چھوڑے</w>": 4382,
  "کھانے</w>": 4383,
  "rasm-o-": 4384,
  "افزا</w>": 4385,
  "فزا</w>": 4386,
  "muaaf</w>": 4387,
  "چھٹ</w>": 4388,
  "بردار</w>": 4389,
  "charagh-e-kushta</w>": 4390,
  "رم": 4391,
  "lip": 4392,
  "وحش": 4393,
  "دف": 4394,
  "اش": 4395,
  "jhe": 4396,
  "akele</w>": 4397,
  "kamre</w>": 4398,
  "uk</w>": 4399,
  "چڑ": 4400,
  "بھیڑ</w>": 4401,
  "کھلو": 4402,
  "گم": 4403,
  "ہنسنے</w>": 4404,
  "hansne</w>": 4405,
  "نظروں</w>": 4406,
  "nazron</w>": 4407,
  "bastiyan</w>": 4408,
  "sukh</w>": 4409,
  "سانسوں</w>": 4410,
  "sanson</w>": 4411,
  "اون": 4412,
  "دشمنوں</w>": 4413,
  "dushmanon</w>": 4414,
  "ٹوٹی</w>": 4415,
  "بیتے</w>": 4416,
  "بہتا</w>": 4417,
  "bahta</w>": 4418,
  "jalae</w>": 4419,
  "دستک</w>": 4420,
  "dastak</w>": 4421,
  "ٹتی</w>": 4422,
  "اٹھاؤ</w>": 4423,
  "پتوں</w>": 4424,
  "tayyar</w>": 4425,
  "بھنور</w>": 4426,
  "bhanvar</w>": 4427,
  "dars</w>": 4428,
  "مکھ</w>": 4429,
  "fitrat-e-": 4430,
  "دکھاتی</w>": 4431,
  "‌‌</w>": 4432,
  "qurb</w>": 4433,
  "بخشش</w>": 4434,
  "roe</w>": 4435,
  "سمندروں</w>": 4436,
  "samundaron</w>": 4437,
  "ہتھ": 4438,
  "pukare</w>": 4439,
  "jashn-e-": 4440,
  "gham-e-dauran</w>": 4441,
  "engi</w>": 4442,
  "صحن</w>": 4443,
  "سوئیں</w>": 4444,
  "عتیں</w>": 4445,
  "بچپن</w>": 4446,
  "bachpan</w>": 4447,
  "jhil": 4448,
  "apnon</w>": 4449,
  "یکسر</w>": 4450,
  "ہٹ</w>": 4451,
  "جھگڑا</w>": 4452,
  "jhagda</w>": 4453,
  "tark-e-mohabbat</w>": 4454,
  "thuk": 4455,
  "فسانا</w>": 4456,
  "gardish-e-ayyam</w>": 4457,
  "badli</w>": 4458,
  "بھیگتا</w>": 4459,
  "bhigta</w>": 4460,
  "farmaiyega</w>": 4461,
  "لبریز</w>": 4462,
  "لغ": 4463,
  "گھٹائیں</w>": 4464,
  "ghataen</w>": 4465,
  "تبہ</w>": 4466,
  "حیدرؔ</w>": 4467,
  "'hai": 4468,
  "'haidar": 4469,
  "'haidar'</w>": 4470,
  "نخل</w>": 4471,
  "بغل</w>": 4472,
  "naznin</w>": 4473,
  "طی": 4474,
  "sabr-o-": 4475,
  "raz-e-ishq</w>": 4476,
  "گھونٹ</w>": 4477,
  "girte</w>": 4478,
  "mahmil</w>": 4479,
  "بتائیں</w>": 4480,
  "istigh": 4481,
  "زہد</w>": 4482,
  "ڈالے</w>": 4483,
  "dard-e-sar</w>": 4484,
  "مطلق</w>": 4485,
  "mutlaq</w>": 4486,
  "قمر</w>": 4487,
  "shab-e-vasl</w>": 4488,
  "goshe</w>": 4489,
  "عقبیٰ</w>": 4490,
  "uqba</w>": 4491,
  "سننا</w>": 4492,
  "sunna</w>": 4493,
  "پھونک</w>": 4494,
  "phunk</w>": 4495,
  "gard-": 4496,
  "آرسی</w>": 4497,
  "چھوٹا</w>": 4498,
  "مینائے</w>": 4499,
  "بھیس</w>": 4500,
  "bhes</w>": 4501,
  "bahs</w>": 4502,
  "حیواں</w>": 4503,
  "درپیش</w>": 4504,
  "darpesh</w>": 4505,
  "gosh-e-": 4506,
  "ibrat</w>": 4507,
  "خونیں</w>": 4508,
  "گریز</w>": 4509,
  "راہ": 4510,
  "pichhle</w>": 4511,
  "ویسا</w>": 4512,
  "hukm-e-": 4513,
  "پرچھ": 4514,
  "hukm</w>": 4515,
  "dgi</w>": 4516,
  "bosa-e-": 4517,
  "ہونٹ</w>": 4518,
  "hont</w>": 4519,
  "یعقو": 4520,
  "pand</w>": 4521,
  "نمرود</w>": 4522,
  "namrud</w>": 4523,
  "gul-rang</w>": 4524,
  "khanuman-kharab</w>": 4525,
  "pesh": 4526,
  "ہلال</w>": 4527,
  "عناں</w>": 4528,
  "nava-": 4529,
  "sid": 4530,
  "utthi</w>": 4531,
  "na-rasa</w>": 4532,
  "مدح</w>": 4533,
  "jins-e-": 4534,
  "ڈوب": 4535,
  "لیتی</w>": 4536,
  "leti</w>": 4537,
  "آنچ</w>": 4538,
  "aanch</w>": 4539,
  "jalti</w>": 4540,
  "katti</w>": 4541,
  "محروم</w>": 4542,
  "پیو": 4543,
  "paivan": 4544,
  "masti-e-": 4545,
  "سبق</w>": 4546,
  "گزریں</w>": 4547,
  "kashmakash</w>": 4548,
  "dil-kusha</w>": 4549,
  "sava": 4550,
  "خشت</w>": 4551,
  "پناہ</w>": 4552,
  "فضاؤں</w>": 4553,
  "fazaon</w>": 4554,
  "qalb</w>": 4555,
  "ہم": 4556,
  "angez</w>": 4557,
  "سرکار</w>": 4558,
  "hushyar</w>": 4559,
  "t-e-safar</w>": 4560,
  "عجم</w>": 4561,
  "نومیدی</w>": 4562,
  "کیمیا</w>": 4563,
  "surma-": 4564,
  "رازداں</w>": 4565,
  "raz-dan</w>": 4566,
  "خطاب</w>": 4567,
  "طاؤ": 4568,
  "طاؤس</w>": 4569,
  "ظہور</w>": 4570,
  "zuhur</w>": 4571,
  "کلیم</w>": 4572,
  "shorida</w>": 4573,
  "تھام</w>": 4574,
  "thaam</w>": 4575,
  "khas-o-": 4576,
  "مغ": 4577,
  "بینی</w>": 4578,
  "irfan</w>": 4579,
  "حکو": 4580,
  "tasbih</w>": 4581,
  "tahzib-e-": 4582,
  "tund-": 4583,
  "نخ": 4584,
  "ashna-e-": 4585,
  "حکای": 4586,
  "tishna-kam</w>": 4587,
  "shola</w>": 4588,
  "باطل</w>": 4589,
  "قوت</w>": 4590,
  "آئین</w>": 4591,
  "گوئی</w>": 4592,
  "شعلوں</w>": 4593,
  "didar-e-": 4594,
  "پینے</w>": 4595,
  "piine</w>": 4596,
  "ہوشیار</w>": 4597,
  "دکاں</w>": 4598,
  "دکھاتا</w>": 4599,
  "allah-": 4600,
  "ریز</w>": 4601,
  "دھن</w>": 4602,
  "عظ": 4603,
  "rukhsat-e-": 4604,
  "sokh": 4605,
  "سحری</w>": 4606,
  "basta</w>": 4607,
  "جفائیں</w>": 4608,
  "ru-e-yar</w>": 4609,
  "insaf</w>": 4610,
  "khole</w>": 4611,
  "سلوک</w>": 4612,
  "بولا</w>": 4613,
  "دنی</w>": 4614,
  "lakht-e-jigar</w>": 4615,
  "mauj-": 4616,
  "آرزوئے</w>": 4617,
  "arzu-e-": 4618,
  "ڈھونڈے</w>": 4619,
  "zarf</w>": 4620,
  "کھینچتا</w>": 4621,
  "shab-e-hijr</w>": 4622,
  "-dar</w>": 4623,
  "لچک</w>": 4624,
  "دھنک</w>": 4625,
  "khurshid-e-": 4626,
  "dariya-": 4627,
  "gareban-": 4628,
  "qaaim</w>": 4629,
  "نیت</w>": 4630,
  "niyyat</w>": 4631,
  "sehr</w>": 4632,
  "دھڑکتا</w>": 4633,
  "عربدہ</w>": 4634,
  "na-mehrban</w>": 4635,
  "jui</w>": 4636,
  "بکف</w>": 4637,
  "s-o-": 4638,
  "dilrubai</w>": 4639,
  "shart</w>": 4640,
  "ٹل</w>": 4641,
  "dida-e-tar</w>": 4642,
  "روک</w>": 4643,
  "rok</w>": 4644,
  "گناہوں</w>": 4645,
  "chashm-e-mast</w>": 4646,
  "jam-e-sharab</w>": 4647,
  "nikhat-e-gul</w>": 4648,
  "zulekha</w>": 4649,
  "گنج</w>": 4650,
  "جلدی</w>": 4651,
  "jaldi</w>": 4652,
  "پارۂ</w>": 4653,
  "کوچہ</w>": 4654,
  "دکھائیں</w>": 4655,
  "بولتا</w>": 4656,
  "bolta</w>": 4657,
  "tujhi</w>": 4658,
  "کھڑکی</w>": 4659,
  "khidki</w>": 4660,
  "استخواں</w>": 4661,
  "مہکی</w>": 4662,
  "mahki</w>": 4663,
  "چڑھتے</w>": 4664,
  "چلن</w>": 4665,
  "be-mehr</w>": 4666,
  "پردگی</w>": 4667,
  "کڑی</w>": 4668,
  "duhai</w>": 4669,
  "لکھتے</w>": 4670,
  "likhte</w>": 4671,
  "mauj-e-saba</w>": 4672,
  "قربتیں</w>": 4673,
  "qurbaten</w>": 4674,
  "ویران</w>": 4675,
  "زود</w>": 4676,
  "be-zaban</w>": 4677,
  "gird</w>": 4678,
  "guzarna</w>": 4679,
  "عتوں</w>": 4680,
  "abla-": 4681,
  "abla-pa</w>": 4682,
  "مہکے</w>": 4683,
  "بینائی</w>": 4684,
  "navai</w>": 4685,
  "rang-": 4686,
  "کوثر</w>": 4687,
  "pasban</w>": 4688,
  "نہانی</w>": 4689,
  "rabt-e-": 4690,
  "nihani</w>": 4691,
  "majbur</w>": 4692,
  "خمیازہ</w>": 4693,
  "khamyaza</w>": 4694,
  "zi-": 4695,
  "جہت</w>": 4696,
  "ندیم</w>": 4697,
  "کہیو</w>": 4698,
  "kahiyo</w>": 4699,
  "shadmani</w>": 4700,
  "پوچھنے</w>": 4701,
  "dne</w>": 4702,
  "‌ہاۓ</w>": 4703,
  "نکلنے</w>": 4704,
  "وقف</w>": 4705,
  "قلزم</w>": 4706,
  "niyaz-e-": 4707,
  "بازو": 4708,
  "bedad-e-": 4709,
  "sarv-qad</w>": 4710,
  "marham</w>": 4711,
  "bazm-e-tarab</w>": 4712,
  "عافیت</w>": 4713,
  "afiyat</w>": 4714,
  "جلد</w>": 4715,
  "jald</w>": 4716,
  "khvab-": 4717,
  "gham-e-duniya</w>": 4718,
  "حکمت</w>": 4719,
  "کلفت</w>": 4720,
  "farma</w>": 4721,
  "خوابیدہ</w>": 4722,
  "khvabida</w>": 4723,
  "ustad</w>": 4724,
  "muzh": 4725,
  "معذور</w>": 4726,
  "علی</w>": 4727,
  "khasta</w>": 4728,
  "sar-e-rahguzar</w>": 4729,
  "زعم</w>": 4730,
  "qatra-e-khun</w>": 4731,
  "اجزائے</w>": 4732,
  "ajza-e-": 4733,
  "pareshani-e-": 4734,
  "shikve</w>": 4735,
  "باطن</w>": 4736,
  "زخمی</w>": 4737,
  "zakhmi</w>": 4738,
  "rindan</w>": 4739,
  "شفق</w>": 4740,
  "azmane</w>": 4741,
  "کشتۂ</w>": 4742,
  "timsal</w>": 4743,
  "آبگی": 4744,
  "dilkash</w>": 4745,
  "jalva-gah-e-": 4746,
  "پیشانی</w>": 4747,
  "سودائے</w>": 4748,
  "aenge</w>": 4749,
  "سانپ</w>": 4750,
  "saanp</w>": 4751,
  "davat</w>": 4752,
  "ختن</w>": 4753,
  "pa-ba-": 4754,
  "bad-khu</w>": 4755,
  "pa-": 4756,
  "اگلے</w>": 4757,
  "agle</w>": 4758,
  "mae</w>": 4759,
  "qatl-": 4760,
  "جواہر</w>": 4761,
  "رسن</w>": 4762,
  "mard</w>": 4763,
  "اڑنے</w>": 4764,
  "pesh-tar</w>": 4765,
  "na-umi": 4766,
  "زنجی": 4767,
  "tishna-lab</w>": 4768,
  "paiman-e-vafa</w>": 4769,
  "shoala-": 4770,
  "فروزاں</w>": 4771,
  "دکان</w>": 4772,
  "کھولتے</w>": 4773,
  "kholte</w>": 4774,
  "ماہ": 4775,
  "ماہتاب</w>": 4776,
  "جیتا</w>": 4777,
  "jiita</w>": 4778,
  "گزرتے</w>": 4779,
  "guzarte</w>": 4780,
  "تقاضائے</w>": 4781,
  "soz-e-nihan</w>": 4782,
  "afsurdagi</w>": 4783,
  "کجا</w>": 4784,
  "dastar</w>": 4785,
  "mehr-o-vafa</w>": 4786,
  "آسمانی</w>": 4787,
  "asmani</w>": 4788,
  "لکھتا</w>": 4789,
  "اڑتی</w>": 4790,
  "udti</w>": 4791,
  "naqd-e-": 4792,
  "rag-e-jan</w>": 4793,
  "afza</w>": 4794,
  "چھیڑ": 4795,
  "gor</w>": 4796,
  "اٹھاتے</w>": 4797,
  "vasta</w>": 4798,
  "dair-o-": 4799,
  "bechain</w>": 4800,
  "رمز</w>": 4801,
  "رعنائی</w>": 4802,
  "musavvir</w>": 4803,
  "divan</w>": 4804,
  "karobar-e-": 4805,
  "شمعیں</w>": 4806,
  "اندھیرا</w>": 4807,
  "andhera</w>": 4808,
  "چمکتی</w>": 4809,
  "chamakti</w>": 4810,
  "پڑھا</w>": 4811,
  "ummiden</w>": 4812,
  "جاگتا</w>": 4813,
  "jagta</w>": 4814,
  "پتھروں</w>": 4815,
  "pattharon</w>": 4816,
  "دھرتی</w>": 4817,
  "dharti</w>": 4818,
  "سانسیں</w>": 4819,
  "sansen</w>": 4820,
  "چھت</w>": 4821,
  "مولا</w>": 4822,
  "بچئے</w>": 4823,
  "پیروں</w>": 4824,
  "کھوئے</w>": 4825,
  "رکے</w>": 4826,
  "پلکیں</w>": 4827,
  "palken</w>": 4828,
  "پیڑوں</w>": 4829,
  "pedon</w>": 4830,
  "دبے</w>": 4831,
  "سمجھنے</w>": 4832,
  "samajhne</w>": 4833,
  "ویرانے</w>": 4834,
  "barf</w>": 4835,
  "fasle</w>": 4836,
  "کاٹ</w>": 4837,
  "فصی": 4838,
  "دروازے</w>": 4839,
  "darvaze</w>": 4840,
  "sadaen</w>": 4841,
  "uthao</w>": 4842,
  "parinde</w>": 4843,
  "khel": 4844,
  "یو</w>": 4845,
  "ishq-": 4846,
  "asbab</w>": 4847,
  "تئیں</w>": 4848,
  "taiin</w>": 4849,
  "کھوتی</w>": 4850,
  "jalne</w>": 4851,
  "bichhde</w>": 4852,
  "کٹھن</w>": 4853,
  "قربت</w>": 4854,
  "qurbat</w>": 4855,
  "روگ</w>": 4856,
  "rog</w>": 4857,
  "musalsal</w>": 4858,
  "گہرے</w>": 4859,
  "gahre</w>": 4860,
  "جگنو</w>": 4861,
  "jug": 4862,
  "jugnu": 4863,
  "jugnu</w>": 4864,
  "اوڑھ</w>": 4865,
  "odh</w>": 4866,
  "ڈھال</w>": 4867,
  "خلقت</w>": 4868,
  "ہتھی": 4869,
  "ہتھیلی</w>": 4870,
  "hathe": 4871,
  "hatheli</w>": 4872,
  "puuri</w>": 4873,
  "lahja</w>": 4874,
  "jashn</w>": 4875,
  "khvahish-e-": 4876,
  "بغ": 4877,
  "بغاو": 4878,
  "چھن</w>": 4879,
  "nagri</w>": 4880,
  "کھونے</w>": 4881,
  "سدھ": 4882,
  "sehn-e-": 4883,
  "درجہ</w>": 4884,
  "darja</w>": 4885,
  "تیور</w>": 4886,
  "tevar</w>": 4887,
  "بینوں</w>": 4888,
  "kaun-o-": 4889,
  "kaun-o-makan</w>": 4890,
  "زگی</w>": 4891,
  "سہارے</w>": 4892,
  "متی</w>": 4893,
  "دھیرے</w>": 4894,
  "bigdi</w>": 4895,
  "بکھرنے</w>": 4896,
  "bikharne</w>": 4897,
  "be-hisab</w>": 4898,
  "خئ</w>": 4899,
  "utt": 4900,
  "مشیت</w>": 4901,
  "mashiyyat</w>": 4902,
  "inqalab</w>": 4903,
  "lagaen</w>": 4904,
  "اٹھانا</w>": 4905,
  "چھائی</w>": 4906,
  "صدق</w>": 4907,
  "روپ</w>": 4908,
  "ruup</w>": 4909,
  "dosto</w>": 4910,
  "واردات</w>": 4911,
  "soen</w>": 4912,
  "وسعتیں</w>": 4913,
  "vusaten</w>": 4914,
  "lutf-o-": 4915,
  "mujassam</w>": 4916,
  "ستئ</w>": 4917,
  "بڑھتے</w>": 4918,
  "duube</w>": 4919,
  "navish": 4920,
  "zaanu</w>": 4921,
  "mutrib</w>": 4922,
  "badban</w>": 4923,
  "kisht-e-": 4924,
  "andesha-e-": 4925,
  "aftab-e-": 4926,
  "pir-e-mughan</w>": 4927,
  "nigaran</w>": 4928,
  "mulk-e-": 4929,
  "koson</w>": 4930,
  "خوب": 4931,
  "خوبصورت</w>": 4932,
  "khub-surat</w>": 4933,
  "chara-gar</w>": 4934,
  "ضر": 4935,
  "ضرر</w>": 4936,
  "pur-ghurur</w>": 4937,
  "piiri</w>": 4938,
  "ghunt</w>": 4939,
  "josh</w>": 4940,
  "aaiye</w>": 4941,
  "rindana</w>": 4942,
  "ahl-e-havas</w>": 4943,
  "جستہ</w>": 4944,
  "bataen</w>": 4945,
  "tavaf</w>": 4946,
  "بلکہ</w>": 4947,
  "balki</w>": 4948,
  "دخل</w>": 4949,
  "dakhl</w>": 4950,
  "soz-e-jigar</w>": 4951,
  "dil-e-gham-": 4952,
  "dil-e-gham-ghin</w>": 4953,
  "pareshan-": 4954,
  "siikh</w>": 4955,
  "سجدے</w>": 4956,
  "sajde</w>": 4957,
  "جلوۂ</w>": 4958,
  "مدد</w>": 4959,
  "کوچ</w>": 4960,
  "kuu": 4961,
  "kuuch</w>": 4962,
  "الجھا</w>": 4963,
  "ڈالیں</w>": 4964,
  "چھاتی</w>": 4965,
  "صوفی</w>": 4966,
  "shorish</w>": 4967,
  "taammul</w>": 4968,
  "دب</w>": 4969,
  "bai": 4970,
  "manta</w>": 4971,
  "rind-e-": 4972,
  "hosh": 4973,
  "پوچھئے</w>": 4974,
  "چھپانا</w>": 4975,
  "یادگار</w>": 4976,
  "rangin-": 4977,
  "رضواں</w>": 4978,
  "firdaus</w>": 4979,
  "rizvan</w>": 4980,
  "چھٹا</w>": 4981,
  "ٹتے</w>": 4982,
  "mahv</w>": 4983,
  "زہے</w>": 4984,
  "کربلا</w>": 4985,
  "karbala</w>": 4986,
  "ishrat</w>": 4987,
  "khanda-e-gul</w>": 4988,
  "ashob-e-": 4989,
  "بوسۂ</w>": 4990,
  "یعقوب</w>": 4991,
  "ummid-e-": 4992,
  "subh-e-azal</w>": 4993,
  "be-rukhi</w>": 4994,
  "na-tavani</w>": 4995,
  "ddi</w>": 4996,
  "nazzara-e-": 4997,
  "ذا</w>": 4998,
  "boriya</w>": 4999,
  "rakkhi</w>": 5000,
  "چھوٹے</w>": 5001,
  "آلودہ</w>": 5002,
  "nuk": 5003,
  "iqrar-e-": 5004,
  "mulla</w>": 5005,
  "تین</w>": 5006,
  "mahrum</w>": 5007,
  "گستاخ</w>": 5008,
  "gustakh</w>": 5009,
  "khudavan": 5010,
  "be-baha</w>": 5011,
  "اکسیر</w>": 5012,
  "iksir</w>": 5013,
  "zillat</w>": 5014,
  "مکتب</w>": 5015,
  "ziyarat-": 5016,
  "khud-ba-khud</w>": 5017,
  "begana-": 5018,
  "نوازی</w>": 5019,
  "navazi</w>": 5020,
  "سازی</w>": 5021,
  "rah-o-rasm-e-": 5022,
  "جمی</w>": 5023,
  "فقر</w>": 5024,
  "faqr</w>": 5025,
  "saltanat</w>": 5026,
  "kam-nigahi</w>": 5027,
  "دنیائے</w>": 5028,
  "کردار</w>": 5029,
  "دلیل</w>": 5030,
  "nihayat</w>": 5031,
  "kar-e-jahan</w>": 5032,
  "sharm": 5033,
  "sharmsar</w>": 5034,
  "بٹھا</w>": 5035,
  "بگڑتا</w>": 5036,
  "bigadta</w>": 5037,
  "zohd</w>": 5038,
  "nok-e-": 5039,
  "beganagi</w>": 5040,
  "sarkar</w>": 5041,
  "muusa</w>": 5042,
  "نیستاں</w>": 5043,
  "سفینہ</w>": 5044,
  "زیب</w>": 5045,
  "kimiya</w>": 5046,
  "gharq-e-": 5047,
  "misr</w>": 5048,
  "lab-e-bam</w>": 5049,
  "پرہیز</w>": 5050,
  "parhez</w>": 5051,
  "kavish-e-": 5052,
  "کہسار</w>": 5053,
  "kohsar</w>": 5054,
  "gardan-e-": 5055,
  "جھج": 5056,
  "tah-e-dam</w>": 5057,
  "درد": 5058,
  "dard": 5059,
  "bebak</w>": 5060,
  "id": 5061,
  "ashiyana</w>": 5062,
  "kadon</w>": 5063,
  "محفو": 5064,
  "محفوظ</w>": 5065,
  "mahfuz</w>": 5066,
  "maghrib</w>": 5067,
  "دستی</w>": 5068,
  "tez-": 5069,
  "mahrumi</w>": 5070,
  "بخشی</w>": 5071,
  "bakhshi</w>": 5072,
  "حکایت</w>": 5073,
  "آشنا</w>": 5074,
  "be-nam</w>": 5075,
  "ڈوبتے</w>": 5076,
  "dubte</w>": 5077,
  "حوصلۂ</w>": 5078,
  "ہیچ</w>": 5079,
  "پہچانا</w>": 5080,
  "darve": 5081,
  "پہنچی</w>": 5082,
  "pahunchi</w>": 5083,
  "goi</w>": 5084,
  "کلیسا</w>": 5085,
  "پیوند</w>": 5086,
  "na-khush</w>": 5087,
  "shoalon</w>": 5088,
  "سہ</w>": 5089,
  "چھوڑی</w>": 5090,
  "chhodi</w>": 5091,
  "افسانۂ</w>": 5092,
  "afsana-e-": 5093,
  "sabr-": 5094,
  "sukut</w>": 5095,
  "bastiyon</w>": 5096,
  "ustuvar</w>": 5097,
  "hoshiyar</w>": 5098,
  "ٹھکانہ</w>": 5099,
  "din-o-": 5100,
  "بیماری</w>": 5101,
  "کدۂ</w>": 5102,
  "خلل</w>": 5103,
  "shahron</w>": 5104,
  "jazb</w>": 5105,
  "suud</w>": 5106,
  "بیٹھنا</w>": 5107,
  "baithna</w>": 5108,
  "lab-e-shirin</w>": 5109,
  "قصۂ</w>": 5110,
  "qissa-e-": 5111,
  "گریبان</w>": 5112,
  "dil-e-insan</w>": 5113,
  "bedard</w>": 5114,
  "taqsir</w>": 5115,
  "فو": 5116,
  "shab-o-roz</w>": 5117,
  "لیل</w>": 5118,
  "maail</w>": 5119,
  "dilruba</w>": 5120,
  "shab-e-visal</w>": 5121,
  "ashk-bari</w>": 5122,
  "bul-havas</w>": 5123,
  "raqs-e-": 5124,
  "but-khane</w>": 5125,
  "بیدل</w>": 5126,
  "be-dil</w>": 5127,
  "nau-khez</w>": 5128,
  "لپٹ</w>": 5129,
  "قطرے</w>": 5130,
  "نیش</w>": 5131,
  "sheva</w>": 5132,
  "bedad-": 5133,
  "sargarm-e-": 5134,
  "آگاہ</w>": 5135,
  "نسخہ</w>": 5136,
  "جزو</w>": 5137,
  "سوزاں</w>": 5138,
  "باہم</w>": 5139,
  "بیش</w>": 5140,
  "rang-e-hina</w>": 5141,
  "عطر</w>": 5142,
  "سہ": 5143,
  "sambhalta</w>": 5144,
  "sanj</w>": 5145,
  "shokh-e-": 5146,
  "jam-e-jam</w>": 5147,
  "dil-e-zar</w>": 5148,
  "چھوڑیں</w>": 5149,
  "-rang</w>": 5150,
  "dil-sitan</w>": 5151,
  "tavaf-e-": 5152,
  "ba-sad-": 5153,
  "دیواریں</w>": 5154,
  "divaren</w>": 5155,
  "کھلتی</w>": 5156,
  "لکی": 5157,
  "!</w>": 5158,
  "سپردگی</w>": 5159,
  "supurdagi</w>": 5160,
  "دریچے</w>": 5161,
  "dariche</w>": 5162,
  "kadi</w>": 5163,
  "arzan</w>": 5164,
  "vada-e-farda</w>": 5165,
  "آئینۂ</w>": 5166,
  "رفتگاں</w>": 5167,
  "raftagan</w>": 5168,
  "حجابوں</w>": 5169,
  "unvan-e-": 5170,
  "mahbub-e-": 5171,
  "موسموں</w>": 5172,
  "na-saza</w>": 5173,
  "وفائے</w>": 5174,
  "talabgar</w>": 5175,
  "گزرنا</w>": 5176,
  "tavaqqo</w>": 5177,
  "سمٹ</w>": 5178,
  "بلندی</w>": 5179,
  "bulandi</w>": 5180,
  "ejaz-e-": 5181,
  "mahke</w>": 5182,
  "شناسائی</w>": 5183,
  "اختر</w>": 5184,
  "nashtar</w>": 5185,
  "ریشہ</w>": 5186,
  "پردا</w>": 5187,
  "majra</w>": 5188,
  "عص": 5189,
  "اۓ</w>": 5190,
  "بزرگ</w>": 5191,
  "بھاگے</w>": 5192,
  "shab-e-tanhai</w>": 5193,
  "فارغ</w>": 5194,
  "farigh</w>": 5195,
  "صفحۂ</w>": 5196,
  "kashmakash-e-": 5197,
  "puchhne</w>": 5198,
  "بیٹھیں</w>": 5199,
  "khiram-e-naz</w>": 5200,
  "andher</w>": 5201,
  "لڑائی</w>": 5202,
  "غیب</w>": 5203,
  "ishrat-e-": 5204,
  "angusht-e-": 5205,
  "dast-o-pa</w>": 5206,
  "hijr-e-": 5207,
  "فریبی</w>": 5208,
  "shab-e-hijran</w>": 5209,
  "ju-e-": 5210,
  "رہین</w>": 5211,
  "kasrat-e-": 5212,
  "بیض": 5213,
  "bajae</w>": 5214,
  "نش</w>": 5215,
  "آمادہ</w>": 5216,
  "visal-e-yar</w>": 5217,
  "گسار</w>": 5218,
  "gham-gusar</w>": 5219,
  "gham-e-rozgar</w>": 5220,
  "sar-ni": 5221,
  "سعی": 5222,
  "سعیٔ</w>": 5223,
  "taskhir</w>": 5224,
  "khubi-e-": 5225,
  "neki</w>": 5226,
  "تنگئ</w>": 5227,
  "gham-e-firaq</w>": 5228,
  "bu-e-gul</w>": 5229,
  "کلاہ</w>": 5230,
  "khayal-e-yar</w>": 5231,
  "چکاں</w>": 5232,
  "khun-chakan</w>": 5233,
  "reza-e-": 5234,
  "na-murad</w>": 5235,
  "bal-e-huma</w>": 5236,
  "nashshe</w>": 5237,
  "lauh-e-": 5238,
  "shagufta</w>": 5239,
  "فسون</w>": 5240,
  "andesha</w>": 5241,
  "barq": 5242,
  "بیگانۂ</w>": 5243,
  "نیٔ</w>": 5244,
  "marg-e-na-gahan</w>": 5245,
  "محفلیں</w>": 5246,
  "mahfilen</w>": 5247,
  "sahra-": 5248,
  "zanu</w>": 5249,
  "دمک</w>": 5250,
  "کھلنے</w>": 5251,
  "طعن</w>": 5252,
  "kaleja</w>": 5253,
  "asl</w>": 5254,
  "کھٹکا</w>": 5255,
  "khatka</w>": 5256,
  "dar-o-rasan</w>": 5257,
  "utre</w>": 5258,
  "fard</w>": 5259,
  "ناامیدی</w>": 5260,
  "lakht</w>": 5261,
  "namak-dan</w>": 5262,
  "navak-e-": 5263,
  "زشیں</w>": 5264,
  "khalvat-e-": 5265,
  "turra-e-": 5266,
  "چتے</w>": 5267,
  "لاگ</w>": 5268,
  "na-karda</w>": 5269,
  "مضطرب</w>": 5270,
  "muztarib</w>": 5271,
  "qaaem</w>": 5272,
  "بھلے</w>": 5273,
  "نس</w>": 5274,
  "vusat</w>": 5275,
  "سیلی</w>": 5276,
  "طۂ</w>": 5277,
  "موقوف</w>": 5278,
  "tabassum-e-": 5279,
  "shiddat</w>": 5280,
  "بدخ": 5281,
  "maqsad</w>": 5282,
  "جمعی": 5283,
  "مریض</w>": 5284,
  "gul-e-tar</w>": 5285,
  "chhode</w>": 5286,
  "میدان</w>": 5287,
  "راگ</w>": 5288,
  "hazrat-e-naseh</w>": 5289,
  "قبلہ</w>": 5290,
  "asbab-e-": 5291,
  "ثانی</w>": 5292,
  "pahunch": 5293,
  "کھاتے</w>": 5294,
  "fard-e-": 5295,
  "dair-o-haram</w>": 5296,
  "نعش</w>": 5297,
  "but-kade</w>": 5298,
  "مژۂ</w>": 5299,
  "rasm-o-rah</w>": 5300,
  "تعریف</w>": 5301,
  "hirs-e-": 5302,
  "maghrur</w>": 5303,
  "nikalna</w>": 5304,
  "chup-": 5305,
  "chup-chap</w>": 5306,
  "تجربہ</w>": 5307,
  "hindu</w>": 5308,
  "ہنسا</w>": 5309,
  "nadi</w>": 5310,
  "چمکتا</w>": 5311,
  "nigahban</w>": 5312,
  "میلے</w>": 5313,
  "میت</w>": 5314,
  "جگم": 5315,
  "be-shumar</w>": 5316,
  "دہلی": 5317,
  "دہلیز</w>": 5318,
  "dahliz</w>": 5319,
  "دھڑکن</w>": 5320,
  "dhadkan</w>": 5321,
  "sona</w>": 5322,
  "پھیلا</w>": 5323,
  "لم": 5324,
  "لمبی</w>": 5325,
  "lambi</w>": 5326,
  "roti</w>": 5327,
  "soi</w>": 5328,
  "pyasi</w>": 5329,
  "mandir</w>": 5330,
  "ٹھوکریں</w>": 5331,
  "thokaren</w>": 5332,
  "مرضی</w>": 5333,
  "marzi</w>": 5334,
  "بھلانے</w>": 5335,
  "بھٹک</w>": 5336,
  "محدود</w>": 5337,
  "کانچ</w>": 5338,
  "kanch</w>": 5339,
  "دھند</w>": 5340,
  "suuna</w>": 5341,
  "قہ": 5342,
  "dubne</w>": 5343,
  "تاً</w>": 5344,
  "be-khud</w>": 5345,
  "سریجن</w>": 5346,
  "لرزاں</w>": 5347,
  "vasf</w>": 5348,
  "yu</w>": 5349,
  "نوبت</w>": 5350,
  "منطق</w>": 5351,
  "rahat-e-jan</w>": 5352,
  "ghusse</w>": 5353,
  "ankhiyan</w>": 5354,
  "fakhr</w>": 5355,
  "صندل</w>": 5356,
  "dukhane</w>": 5357,
  "soya</w>": 5358,
  "طنز</w>": 5359,
  "tanz</w>": 5360,
  "be-tarah</w>": 5361,
  "معج": 5362,
  "rah-ravan-e-": 5363,
  "khilqat</w>": 5364,
  "انہی</w>": 5365,
  "sar-e-sham</w>": 5366,
  "کرشمے</w>": 5367,
  "karishme</w>": 5368,
  "پگھل</w>": 5369,
  "pighal</w>": 5370,
  "خزانہ</w>": 5371,
  "سنسان</w>": 5372,
  "sunsan</w>": 5373,
  "anjan</w>": 5374,
  "وم</w>": 5375,
  "irade</w>": 5376,
  "khush-bu</w>": 5377,
  "بغاوت</w>": 5378,
  "سپر</w>": 5379,
  "sipar</w>": 5380,
  "نشینوں</w>": 5381,
  "مقتول</w>": 5382,
  "maqtul</w>": 5383,
  "adhura</w>": 5384,
  "دلچس": 5385,
  "دلچسپ</w>": 5386,
  "dilchas": 5387,
  "dilchasp</w>": 5388,
  "اٹھائیں</w>": 5389,
  "ڈھونڈیں</w>": 5390,
  "ڈھلے</w>": 5391,
  "بہلا</w>": 5392,
  "bahla</w>": 5393,
  "dil-e-tabah</w>": 5394,
  "ہلا</w>": 5395,
  "دستر": 5396,
  "دسترس</w>": 5397,
  "dastaras</w>": 5398,
  "اعلان</w>": 5399,
  "مذاق</w>": 5400,
  "تھر": 5401,
  "حقیق": 5402,
  "شم</w>": 5403,
  "majma-e-": 5404,
  "pahr</w>": 5405,
  "شوخئ</w>": 5406,
  "مط": 5407,
  "مطم": 5408,
  "مطمئ": 5409,
  "مطمئن</w>": 5410,
  "mutmain</w>": 5411,
  "jan-e-jan</w>": 5412,
  "pur-nam</w>": 5413,
  "be-kaif</w>": 5414,
  "رکی</w>": 5415,
  "sar-e-bazm</w>": 5416,
  "chuum</w>": 5417,
  "khvahan</w>": 5418,
  "dard-ashna</w>": 5419,
  "ویرانوں</w>": 5420,
  "سڑک</w>": 5421,
  "barkha</w>": 5422,
  "'mir'": 5423,
  "ism</w>": 5424,
  "lutf-o-karam</w>": 5425,
  "ہستئ</w>": 5426,
  "زین": 5427,
  "زینہار</w>": 5428,
  "کریم</w>": 5429,
  "مٹتا</w>": 5430,
  "mitta</w>": 5431,
  "labrez</w>": 5432,
  "لغزش</w>": 5433,
  "bijliyan</w>": 5434,
  "kashti-e-": 5435,
  "دہقاں</w>": 5436,
  "dahqan</w>": 5437,
  "رتبہ</w>": 5438,
  "tode</w>": 5439,
  "کبک</w>": 5440,
  "تربت</w>": 5441,
  "turbat</w>": 5442,
  "be-samar</w>": 5443,
  "بہک</w>": 5444,
  "naved-e-": 5445,
  "حسد</w>": 5446,
  "مردانہ</w>": 5447,
  "himmat-e-mar": 5448,
  "himmat-e-mardana</w>": 5449,
  "sham-e-kushta</w>": 5450,
  "tul-e-amal</w>": 5451,
  "pahron</w>": 5452,
  "سجدۂ</w>": 5453,
  "sajda-e-": 5454,
  "rindan-e-": 5455,
  "-kar</w>": 5456,
  "jiy": 5457,
  "saail</w>": 5458,
  "mushkil-": 5459,
  "bahr-e-khuda</w>": 5460,
  "فگار</w>": 5461,
  "figar</w>": 5462,
  "tahi-": 5463,
  "استغنا</w>": 5464,
  "istighna</w>": 5465,
  "شگو": 5466,
  "چپکے</w>": 5467,
  "chupke</w>": 5468,
  "شمس</w>": 5469,
  "کوتاہی</w>": 5470,
  "گوشے</w>": 5471,
  "بڑھتا</w>": 5472,
  "badhta</w>": 5473,
  "زہرہ</w>": 5474,
  "سیدھا</w>": 5475,
  "چھپ": 5476,
  "چھپتی</w>": 5477,
  "jhuum</w>": 5478,
  "نظری</w>": 5479,
  "zulf-e-pareshan</w>": 5480,
  "gard-bad</w>": 5481,
  "دھارا</w>": 5482,
  "lihaz</w>": 5483,
  "suufi</w>": 5484,
  "حسرتوں</w>": 5485,
  "hasraton</w>": 5486,
  "تأ": 5487,
  "تأمل</w>": 5488,
  "دریغ</w>": 5489,
  "جھوٹے</w>": 5490,
  "اصرار</w>": 5491,
  "israr</w>": 5492,
  "qasd</w>": 5493,
  "bigde</w>": 5494,
  "hoshyar</w>": 5495,
  "ab-e-haivan</w>": 5496,
  "hirs</w>": 5497,
  "qadd-e-": 5498,
  "غان</w>": 5499,
  "مٹایا</w>": 5500,
  "اردو</w>": 5501,
  "urdu</w>": 5502,
  "مرث": 5503,
  "طفل</w>": 5504,
  "موجزن</w>": 5505,
  "maujzan</w>": 5506,
  "gavah</w>": 5507,
  "گیسوؤں</w>": 5508,
  "gesuon</w>": 5509,
  "raftar-e-": 5510,
  "حسرتیں</w>": 5511,
  "hasraten</w>": 5512,
  "zor-e-": 5513,
  "شیفتہ</w>": 5514,
  "shefta</w>": 5515,
  "سپند</w>": 5516,
  "safe": 5517,
  "az-bas-ki</w>": 5518,
  "dast-e-dua</w>": 5519,
  "سیرت</w>": 5520,
  "شاہ": 5521,
  "دوتا</w>": 5522,
  "dota</w>": 5523,
  "tarf-e-": 5524,
  "نیشتر</w>": 5525,
  "nesh": 5526,
  "neshtar</w>": 5527,
  "بتایا</w>": 5528,
  "پھینکا</w>": 5529,
  "phenka</w>": 5530,
  "اڑائی</w>": 5531,
  "ghubar-e-rah</w>": 5532,
  "naddi</w>": 5533,
  "gumbad-e-": 5534,
  "takra</w>": 5535,
  "iisa</w>": 5536,
  "kucha-e-qatil</w>": 5537,
  "uchhal": 5538,
  "badalti</w>": 5539,
  "نقصاں</w>": 5540,
  "be-gunah</w>": 5541,
  "sharab-khane</w>": 5542,
  "zof-e-": 5543,
  "kuhan</w>": 5544,
  "hind</w>": 5545,
  "davam</w>": 5546,
  "آوارۂ</w>": 5547,
  "maktab</w>": 5548,
  "ziyarat-gah-e-": 5549,
  "زبوں</w>": 5550,
  "رومی": 5551,
  "رومیؔ</w>": 5552,
  "'rumi": 5553,
  "'rumi'</w>": 5554,
  "gulzar-e-": 5555,
  "karishma-": 5556,
  "guzrin</w>": 5557,
  "fareb-": 5558,
  "ba-khabar</w>": 5559,
  "خوئے</w>": 5560,
  "khu-e-": 5561,
  "غلامی</w>": 5562,
  "جبری": 5563,
  "جبریل</w>": 5564,
  "jibril</w>": 5565,
  "اندھیری</w>": 5566,
  "andheri</w>": 5567,
  "قلندر</w>": 5568,
  "khisht</w>": 5569,
  "rahguzar-e-": 5570,
  "be-panah</w>": 5571,
  "ab-e-ravan</w>": 5572,
  "aabju</w>": 5573,
  "ham-kanar</w>": 5574,
  "daftar-e-": 5575,
  "hindostan</w>": 5576,
  "چھالوں</w>": 5577,
  "کانٹے</w>": 5578,
  "kante</w>": 5579,
  "صر": 5580,
  "صرصر</w>": 5581,
  "jafa-": 5582,
  "buniyad</w>": 5583,
  "gulsitan</w>": 5584,
  "rakht-e-safar</w>": 5585,
  "surma-sa</w>": 5586,
  "وب</w>": 5587,
  "قناعت</w>": 5588,
  "ah-o-fughan</w>": 5589,
  "ahval-e-": 5590,
  "mai-khana-e-": 5591,
  "asrar-e-": 5592,
  "be-gharaz</w>": 5593,
  "شعور</w>": 5594,
  "پختہ</w>": 5595,
  "pukhta</w>": 5596,
  "پھڑ": 5597,
  "حجابی</w>": 5598,
  "be-hijabi</w>": 5599,
  "ترج": 5600,
  "zaval-e-": 5601,
  "idrak</w>": 5602,
  "پرکار</w>": 5603,
  "namnak</w>": 5604,
  "khas-o-khashak</w>": 5605,
  "حوریں</w>": 5606,
  "gul-o-lala</w>": 5607,
  "کدوں</w>": 5608,
  "اندازۂ</w>": 5609,
  "حکومت</w>": 5610,
  "مشرق</w>": 5611,
  "mashriq</w>": 5612,
  "خفتہ</w>": 5613,
  "ehram</w>": 5614,
  "khufta</w>": 5615,
  "پیمانۂ</w>": 5616,
  "dasti</w>": 5617,
  "زیبائی</w>": 5618,
  "zebai</w>": 5619,
  "سختیٔ</w>": 5620,
  "sakhti-e-": 5621,
  "نخچیر</w>": 5622,
  "nakhchir</w>": 5623,
  "جبین</w>": 5624,
  "آشنائے</w>": 5625,
  "افشائے</w>": 5626,
  "ifsha-e-": 5627,
  "hausla-e-": 5628,
  "بم</w>": 5629,
  "ejaaz</w>": 5630,
  "گدائی</w>": 5631,
  "pasbani</w>": 5632,
  "سینوں</w>": 5633,
  "ghazal-kh": 5634,
  "ghazal-khvani</w>": 5635,
  "آگاہی</w>": 5636,
  "javan-": 5637,
  "باہی</w>": 5638,
  "کیش</w>": 5639,
  "ke": 5640,
  "kesh</w>": 5641,
  "درویش</w>": 5642,
  "khurram</w>": 5643,
  "sabr-azma</w>": 5644,
  "be-adab</w>": 5645,
  "گواہی</w>": 5646,
  "gavahi</w>": 5647,
  "bada-khvar</w>": 5648,
  "kaifiyat</w>": 5649,
  "zulmat-e-": 5650,
  "rah-guzar</w>": 5651,
  "har-zarra</w>": 5652,
  "انگیز</w>": 5653,
  "میز</w>": 5654,
  "apne-": 5655,
  "apne-ap</w>": 5656,
  "پیلے</w>": 5657,
  "piile</w>": 5658,
  "nazzare</w>": 5659,
  "dard-e-ishq</w>": 5660,
  "چاٹ</w>": 5661,
  "کدورت</w>": 5662,
  "ساقیٔ</w>": 5663,
  "dida-e-hairan</w>": 5664,
  "girye</w>": 5665,
  "پیچاں</w>": 5666,
  "dildari</w>": 5667,
  "چتون</w>": 5668,
  "chitvan</w>": 5669,
  "zakhm-e-kari</w>": 5670,
  "ayyari</w>": 5671,
  "giraftari</w>": 5672,
  "سوزش</w>": 5673,
  "بیداری</w>": 5674,
  "bandhe</w>": 5675,
  "mushkin</w>": 5676,
  "معمور": 5677,
  "معمورۂ</w>": 5678,
  "parvane</w>": 5679,
  "banao</w>": 5680,
  "ulta</w>": 5681,
  "mujrim</w>": 5682,
  "رسوائے</w>": 5683,
  "rusva-e-": 5684,
  "talkh-": 5685,
  "لقا</w>": 5686,
  "ایما</w>": 5687,
  "ہیرے</w>": 5688,
  "hiire</w>": 5689,
  "shamshir-e-": 5690,
  "گرداب</w>": 5691,
  "مضمون</w>": 5692,
  "mazmun-e-": 5693,
  "yak-qalam</w>": 5694,
  "subh-dam</w>": 5695,
  "dukh": 5696,
  "خواہشیں</w>": 5697,
  "khvahishen</w>": 5698,
  "gareban-chak</w>": 5699,
  "tegh-e-sitam</w>": 5700,
  "tegh-e-qatil</w>": 5701,
  "غا</w>": 5702,
  "zulm-": 5703,
  "dushman-e-jan</w>": 5704,
  "دشنہ</w>": 5705,
  "vasl-o-": 5706,
  "khvari</w>": 5707,
  "nuskha</w>": 5708,
  "va-lekin</w>": 5709,
  "صحت</w>": 5710,
  "fakhr-e-": 5711,
  "chashm-e-pur-": 5712,
  "chashm-e-pur-ab</w>": 5713,
  "کاسۂ</w>": 5714,
  "دشنام</w>": 5715,
  "dushnam</w>": 5716,
  "بھلائی</w>": 5717,
  "pamba</w>": 5718,
  "میسر</w>": 5719,
  "mayassar</w>": 5720,
  "ڈھب</w>": 5721,
  "jalva-numa</w>": 5722,
  "زدگاں</w>": 5723,
  "دردمند</w>": 5724,
  "ubal</w>": 5725,
  "turfa</w>": 5726,
  "imtihan-e-": 5727,
  "عاشقوں</w>": 5728,
  "ashiqon</w>": 5729,
  "rahzanon</w>": 5730,
  "ham-digar</w>": 5731,
  "سہتے</w>": 5732,
  "sahte</w>": 5733,
  "آزردہ</w>": 5734,
  "subh-e-mahshar</w>": 5735,
  "گوشہ</w>": 5736,
  "غریبوں</w>": 5737,
  "ikhlas</w>": 5738,
  "اسیران</w>": 5739,
  "صدقے</w>": 5740,
  "sadqe</w>": 5741,
  "ranga-rang</w>": 5742,
  "ڈھونڈتا</w>": 5743,
  "فسانۂ</w>": 5744,
  "nim-jan</w>": 5745,
  "غزال</w>": 5746,
  "آپس</w>": 5747,
  "طح</w>": 5748,
  "کاہے</w>": 5749,
  "خد</w>": 5750,
  "شکستوں</w>": 5751,
  "shikaston</w>": 5752,
  "حذر</w>": 5753,
  "ad</w>": 5754,
  "رتوں</w>": 5755,
  "hijr-o-": 5756,
  "isa-": 5757,
  "دانستہ</w>": 5758,
  "danista</w>": 5759,
  "gurez-": 5760,
  "gurez-pa</w>": 5761,
  "سلسلے</w>": 5762,
  "silsile</w>": 5763,
  "munkir</w>": 5764,
  "taair</w>": 5765,
  "tark-e-taalluq</w>": 5766,
  "gham-e-hijr</w>": 5767,
  "طبیعتوں</w>": 5768,
  "tabiaton</w>": 5769,
  "ردا</w>": 5770,
  "marhala</w>": 5771,
  "پجاری</w>": 5772,
  "dar-o-bam</w>": 5773,
  "mansha</w>": 5774,
  "بچھڑنے</w>": 5775,
  "pukar</w>": 5776,
  "dubta</w>": 5777,
  "nashsha-e-mai</w>": 5778,
  "nazuk-": 5779,
  "ham-sukhan</w>": 5780,
  "dil-e-nadan</w>": 5781,
  "be-zar</w>": 5782,
  "عشوہ</w>": 5783,
  "ba-andaza-e-": 5784,
  "dagh-e-jigar</w>": 5785,
  "shola-": 5786,
  "sarsabz</w>": 5787,
  "نہال</w>": 5788,
  "بقدر</w>": 5789,
  "وحدت</w>": 5790,
  "shash-ji": 5791,
  "dikhaen</w>": 5792,
  "gham-e-pinhan</w>": 5793,
  "buzurg</w>": 5794,
  "طفلاں</w>": 5795,
  "tiflan</w>": 5796,
  "nigah-e-garm</w>": 5797,
  "حب</w>": 5798,
  "hub": 5799,
  "sabza-e-khat</w>": 5800,
  "rukh-e-yar</w>": 5801,
  "دوشی": 5802,
  "ڈبو</w>": 5803,
  "قبلۂ</w>": 5804,
  "عدالت</w>": 5805,
  "شگفتن</w>": 5806,
  "وارستگی</w>": 5807,
  "varastagi</w>": 5808,
  "گستاخی</w>": 5809,
  "vahm-e-": 5810,
  "اہ": 5811,
  "tar-e-bistar</w>": 5812,
  "shua-e-": 5813,
  "بالش</w>": 5814,
  "سلیماں</w>": 5815,
  "sulaiman</w>": 5816,
  "mashrab</w>": 5817,
  "dikhla": 5818,
  "ba-andaz-e-": 5819,
  "lazzat-e-azar</w>": 5820,
  "آبلوں</w>": 5821,
  "ablon</w>": 5822,
  "پھوڑ": 5823,
  "dar-khur-e-": 5824,
  "yak-bayaban</w>": 5825,
  "qumri</w>": 5826,
  "بینش</w>": 5827,
  "davat-e-": 5828,
  "faiz-e-": 5829,
  "zof</w>": 5830,
  "حزیں</w>": 5831,
  "azm-e-": 5832,
  "نازکی</w>": 5833,
  "nazuki</w>": 5834,
  "sar-e-rah</w>": 5835,
  "hech</w>": 5836,
  "bartaraf</w>": 5837,
  "نظارۂ</w>": 5838,
  "rusva": 5839,
  "جوئے</w>": 5840,
  "عنقا</w>": 5841,
  "anqa</w>": 5842,
  "ijad-e-": 5843,
  "afsun-e-": 5844,
  "ٹنا</w>": 5845,
  "hikmat</w>": 5846,
  "gard-e-rah</w>": 5847,
  "اختلا": 5848,
  "اختلاط</w>": 5849,
  "tazkira-e-": 5850,
  "muamla</w>": 5851,
  "انف": 5852,
  "فضاۓ</w>": 5853,
  "tap-e-": 5854,
  "ta-qayamat</w>": 5855,
  "نعمت</w>": 5856,
  "jasta</w>": 5857,
  "sharmindagi</w>": 5858,
  "آبلے</w>": 5859,
  "aable</w>": 5860,
  "گلد": 5861,
  "سطو": 5862,
  "سطوت</w>": 5863,
  "tinka</w>": 5864,
  "تخم</w>": 5865,
  "aina-khane</w>": 5866,
  "شیرازہ</w>": 5867,
  "گدا": 5868,
  "tavan</w>": 5869,
  "sanj-e-": 5870,
  "فسر": 5871,
  "tapke</w>": 5872,
  "purze</w>": 5873,
  "دبی</w>": 5874,
  "mugh": 5875,
  "ریز": 5876,
  "barg</w>": 5877,
  "bakht-e-": 5878,
  "دوڑے</w>": 5879,
  "کیونکے</w>": 5880,
  "kyunke</w>": 5881,
  "دیگر</w>": 5882,
  "اٹھاتا</w>": 5883,
  "زانوئے</w>": 5884,
  "zanu-e-": 5885,
  "حیرانی</w>": 5886,
  "پھرنے</w>": 5887,
  "phirne</w>": 5888,
  "tapka</w>": 5889,
  "muhaba</w>": 5890,
  "dida-e-khun-": 5891,
  "chak-e-gareban</w>": 5892,
  "zer-e-lab</w>": 5893,
  "تمکی": 5894,
  "تمکین</w>": 5895,
  "tamkin": 5896,
  "فضول</w>": 5897,
  "مریم</w>": 5898,
  "na-rasai</w>": 5899,
  "mohr-e-": 5900,
  "سپاس</w>": 5901,
  "masruf-e-": 5902,
  "afshani</w>": 5903,
  "qaael</w>": 5904,
  "گزرتی</w>": 5905,
  "guzarti</w>": 5906,
  "maqdur</w>": 5907,
  "آفریں</w>": 5908,
  "afrin</w>": 5909,
  "be-dad</w>": 5910,
  "ajz</w>": 5911,
  "ahu-e-": 5912,
  "farsh-e-": 5913,
  "besh</w>": 5914,
  "habs</w>": 5915,
  "arz-e-tamanna</w>": 5916,
  "رب": 5917,
  "ربطی</w>": 5918,
  "be-rab": 5919,
  "nigah-e-ashna</w>": 5920,
  "برسر</w>": 5921,
  "مردمک</w>": 5922,
  "jaur-o-sitam</w>": 5923,
  "khun-baha</w>": 5924,
  "bahar-e-naz</w>": 5925,
  "madfan</w>": 5926,
  "qatl-gah</w>": 5927,
  "سوتا</w>": 5928,
  "sota</w>": 5929,
  "روؤں</w>": 5930,
  "وفاداری</w>": 5931,
  "gum-gashta</w>": 5932,
  "be-sar-o-pa</w>": 5933,
  "lagne</w>": 5934,
  "نمک": 5935,
  "نمکداں</w>": 5936,
  "ruyan</w>": 5937,
  "safha-e-": 5938,
  "saya-e-bal-e-huma</w>": 5939,
  "پاؤ": 5940,
  "پاؤں</w>": 5941,
  "ham-sa": 5942,
  "دکھلائیں</w>": 5943,
  "درست</w>": 5944,
  "jeb</w>": 5945,
  "نقصان</w>": 5946,
  "پائمال</w>": 5947,
  "sar-ta-qadam</w>": 5948,
  "ایذا</w>": 5949,
  "زیٔ</w>": 5950,
  "دیجے</w>": 5951,
  "diije</w>": 5952,
  "تعلی": 5953,
  "تعلیم</w>": 5954,
  "بجھائے</w>": 5955,
  "aaoge</w>": 5956,
  "مژدہ</w>": 5957,
  "ghuncha-e-gul</w>": 5958,
  "chashm-o-": 5959,
  "منصب</w>": 5960,
  "بجھتی</w>": 5961,
  "bujhti</w>": 5962,
  "posh</w>": 5963,
  "مت": 5964,
  "eq</w>": 5965,
  "sargirani</w>": 5966,
  "paigham-e-": 5967,
  "تشویش</w>": 5968,
  "شہیداں</w>": 5969,
  "badakhshan</w>": 5970,
  "بیجا</w>": 5971,
  "be-ja</w>": 5972,
  "naghma-": 5973,
  "زنہار</w>": 5974,
  "عزیزاں</w>": 5975,
  "خودداری</w>": 5976,
  "shaghl</w>": 5977,
  "فراغ</w>": 5978,
  "شگفتہ</w>": 5979,
  "بقول</w>": 5980,
  "جمعیت</w>": 5981,
  "sham-e-hijr</w>": 5982,
  "نکوہ": 5983,
  "نکوہش</w>": 5984,
  "پرداز</w>": 5985,
  "pardaz</w>": 5986,
  "چھوڑ": 5987,
  "qahr</w>": 5988,
  "qibla-e-": 5989,
  "divar-e-chaman</w>": 5990,
  "girya-": 5991,
  "ikram</w>": 5992,
  "qibla</w>": 5993,
  "iyo</w>": 5994,
  "نشیب</w>": 5995,
  "صنعت</w>": 5996,
  "utri</w>": 5997,
  "مطلع</w>": 5998,
  "isyan</w>": 5999,
  "ug": 6000,
  "shahr-": 6001,
  "pari-paikar</w>": 6002,
  "fahm</w>": 6003,
  "لق": 6004,
  "amn</w>": 6005,
  "mulk</w>": 6006,
  "angusht</w>": 6007,
  "mehr-o-mah</w>": 6008,
  "روکش</w>": 6009,
  "itrae</w>": 6010,
  "ڑھا</w>": 6011,
  "pigh": 6012,
  "bazm-": 6013,
  "کوہ": 6014,
  "ishti": 6015,
  "ta-kuja</w>": 6016,
  "وضو</w>": 6017,
  "صورتیں</w>": 6018,
  "naqsh-o-": 6019,
  "zadon</w>": 6020,
  "ابھریں</w>": 6021,
  "نکلنا</w>": 6022,
  "گیت</w>": 6023,
  "giit</w>": 6024,
  "چھونے</w>": 6025,
  "صار</w>": 6026,
  "tajraba</w>": 6027,
  "dukanon</w>": 6028,
  "دھرم</w>": 6029,
  "زنجیریں</w>": 6030,
  "zanjiren</w>": 6031,
  "چڑیوں</w>": 6032,
  "چھوٹی</w>": 6033,
  "as-": 6034,
  "as-pas</w>": 6035,
  "نمازی</w>": 6036,
  "گنتی</w>": 6037,
  "کھلونا</w>": 6038,
  "مدتیں</w>": 6039,
  "بکھری</w>": 6040,
  "bikhri</w>": 6041,
  "رلایا</w>": 6042,
  "سلیقے</w>": 6043,
  "گھٹاؤں</w>": 6044,
  "ghataon</w>": 6045,
  "parinda</w>": 6046,
  "سپنا</w>": 6047,
  "مکمل</w>": 6048,
  "mukam": 6049,
  "mukammal</w>": 6050,
  "بجھنے</w>": 6051,
  "bujhne</w>": 6052,
  "pahra</w>": 6053,
  "نیندوں</w>": 6054,
  "nindon</w>": 6055,
  "چٹ": 6056,
  "بانٹ</w>": 6057,
  "baant</w>": 6058,
  "چنچل</w>": 6059,
  "لڑکی</w>": 6060,
  "ladki</w>": 6061,
  "badalta</w>": 6062,
  "پھٹی</w>": 6063,
  "mandi</w>": 6064,
  "الجھن</w>": 6065,
  "dusre</w>": 6066,
  "sochte</w>": 6067,
  "رس</w>": 6068,
  "mahdud</w>": 6069,
  "ojhal</w>": 6070,
  "سودائی</w>": 6071,
  "اٹک</w>": 6072,
  "duaon</w>": 6073,
  "nazm</w>": 6074,
  "nabz</w>": 6075,
  "سمجھانے</w>": 6076,
  "لوٹے</w>": 6077,
  "قہقہہ</w>": 6078,
  "qahqaha</w>": 6079,
  "سیڑھ": 6080,
  "گونج": 6081,
  "gunj": 6082,
  "ہرجائی</w>": 6083,
  "harjai</w>": 6084,
  "سناٹے</w>": 6085,
  "ڈالو</w>": 6086,
  "be-shak</w>": 6087,
  "سلا</w>": 6088,
  "خبردار</w>": 6089,
  "جاگنے</w>": 6090,
  "jagne</w>": 6091,
  "مرجھ": 6092,
  "sahma</w>": 6093,
  "dilbar-e-": 6094,
  "naubat</w>": 6095,
  "kad": 6096,
  "tajrabe</w>": 6097,
  "yyat-e-": 6098,
  "غصے</w>": 6099,
  "jan-bakhsh</w>": 6100,
  "چہرۂ</w>": 6101,
  "chehra-e-": 6102,
  "جھنکار</w>": 6103,
  "jhankar</w>": 6104,
  "gireban</w>": 6105,
  "hadd-e-": 6106,
  "خزانے</w>": 6107,
  "hadsa</w>": 6108,
  "کڑا</w>": 6109,
  "سلگتے</w>": 6110,
  "اذیت</w>": 6111,
  "بھروسہ</w>": 6112,
  "bakhshish</w>": 6113,
  "وحشتیں</w>": 6114,
  "بجھانے</w>": 6115,
  "جاگتے</w>": 6116,
  "jagte</w>": 6117,
  "گھنے</w>": 6118,
  "shiddat-e-": 6119,
  "men": 6120,
  "گیٔ</w>": 6121,
  "جزی": 6122,
  "سوچتی</w>": 6123,
  "sochti</w>": 6124,
  "pahla</w>": 6125,
  "جئیں</w>": 6126,
  "سیراب</w>": 6127,
  "utarti</w>": 6128,
  "sadaon</w>": 6129,
  "کچا</w>": 6130,
  "معرکہ</w>": 6131,
  "maarka</w>": 6132,
  "barsa</w>": 6133,
  "sar-e-maqtal</w>": 6134,
  "سویرے</w>": 6135,
  "savere</w>": 6136,
  "ehsas-e-": 6137,
  "جگائے</w>": 6138,
  "istiara</w>": 6139,
  "قبروں</w>": 6140,
  "qabron</w>": 6141,
  "بھیگی</w>": 6142,
  "pyara</w>": 6143,
  "dobara</w>": 6144,
  "bhiik</w>": 6145,
  "khak-basar</w>": 6146,
  "qurb-e-": 6147,
  "شرطیں</w>": 6148,
  "sharten</w>": 6149,
  "سانحہ</w>": 6150,
  "دھندلا</w>": 6151,
  "dhundla</w>": 6152,
  "اونچا</w>": 6153,
  "uncha</w>": 6154,
  "ابھرتا</w>": 6155,
  "ubharta</w>": 6156,
  "zade</w>": 6157,
  "بیٹھی</w>": 6158,
  "qisse</w>": 6159,
  "حبس</w>": 6160,
  "دوپہر</w>": 6161,
  "asli</w>": 6162,
  "تڑپتا</w>": 6163,
  "tadapta</w>": 6164,
  "خدائے</w>": 6165,
  "تڑپا</w>": 6166,
  "tadpa</w>": 6167,
  "کڑ": 6168,
  "surkh</w>": 6169,
  "ku</w>": 6170,
  "سپنے</w>": 6171,
  "تازگی</w>": 6172,
  "tazgi</w>": 6173,
  "توڑ": 6174,
  "لطیف</w>": 6175,
  "sud-o-ziyan</w>": 6176,
  "khinchti</w>": 6177,
  "تلخی</w>": 6178,
  "takrae</w>": 6179,
  "لوٹا</w>": 6180,
  "چیخ</w>": 6181,
  "pichhli</w>": 6182,
  "harne</w>": 6183,
  "sanvarne</w>": 6184,
  "mantiq</w>": 6185,
  "utthen</w>": 6186,
  "thar": 6187,
  "pahre</w>": 6188,
  "جھکی</w>": 6189,
  "adaen</w>": 6190,
  "rahnuma": 6191,
  "rahnumaon</w>": 6192,
  "barq-": 6193,
  "بیتی</w>": 6194,
  "ڈھا</w>": 6195,
  "guzregi</w>": 6196,
  "دیس</w>": 6197,
  "des</w>": 6198,
  "مچ</w>": 6199,
  "sach-mu": 6200,
  "sach-much</w>": 6201,
  "اذن</w>": 6202,
  "ذروں</w>": 6203,
  "zarron</w>": 6204,
  "نیٰ</w>": 6205,
  "بہلتا</w>": 6206,
  "bahalta</w>": 6207,
  "فلاں</w>": 6208,
  "ٹھیک</w>": 6209,
  "thiik</w>": 6210,
  "dusri</w>": 6211,
  "bazm-e-dushman</w>": 6212,
  "پڑھتے</w>": 6213,
  "chilman</w>": 6214,
  "ehtiyaj</w>": 6215,
  "sar-e-mahfil</w>": 6216,
  "rah-e-ishq</w>": 6217,
  "irshad</w>": 6218,
  "ٹھان</w>": 6219,
  "thaan</w>": 6220,
  "امیدوار</w>": 6221,
  "نکلتا</w>": 6222,
  "nikalta</w>": 6223,
  "رلانا</w>": 6224,
  "kam-bakht</w>": 6225,
  "جھوٹی</w>": 6226,
  "ku-e-butan</w>": 6227,
  "ishq-e-butan</w>": 6228,
  "pankhudi</w>": 6229,
  "جھم": 6230,
  "چپے</w>": 6231,
  "chappe</w>": 6232,
  "ٹھنڈی</w>": 6233,
  "than": 6234,
  "thandi</w>": 6235,
  "likkhe</w>": 6236,
  "be-nur</w>": 6237,
  "co": 6238,
  "مارک": 6239,
  "مارکس": 6240,
  "مارکسزم</w>": 6241,
  "marx": 6242,
  "marxism</w>": 6243,
  "مرک": 6244,
  "مرکز</w>": 6245,
  "چھلکتے</w>": 6246,
  "chhalakte</w>": 6247,
  "حدود</w>": 6248,
  "lic": 6249,
  "سل": 6250,
  "bahr-e-hasti</w>": 6251,
  "shaikh-sahib</w>": 6252,
  "سانچے</w>": 6253,
  "sanche</w>": 6254,
  "be-sabat</w>": 6255,
  "barhami</w>": 6256,
  "nigah-e-mast</w>": 6257,
  "لوہو</w>": 6258,
  "lohu</w>": 6259,
  "dil-e-na-subur</w>": 6260,
  "مدھم</w>": 6261,
  "maddham</w>": 6262,
  "naqsh-e-kaf-e-pa</w>": 6263,
  "avvalin</w>": 6264,
  "husn-e-bayan</w>": 6265,
  "hayat-o-mamat</w>": 6266,
  "jaiyega</w>": 6267,
  "پھیلتے</w>": 6268,
  "samet</w>": 6269,
  "درپئے</w>": 6270,
  "شتۂ</w>": 6271,
  "eq-e-": 6272,
  "کشت": 6273,
  "بادباں</w>": 6274,
  "kashti-e-mai</w>": 6275,
  "وفور</w>": 6276,
  "inqalab-e-": 6277,
  "سین": 6278,
  "ہنسے</w>": 6279,
  "tinke</w>": 6280,
  "rutba</w>": 6281,
  "اندیشۂ</w>": 6282,
  "bagh-e-jannat</w>": 6283,
  "nakhl-e-": 6284,
  "ٹانکے</w>": 6285,
  "tanke</w>": 6286,
  "'nazm'-e-": 6287,
  "'nazm'-e-mubtala</w>": 6288,
  "عشو": 6289,
  "ishva-e-": 6290,
  "غصہ</w>": 6291,
  "وادئ</w>": 6292,
  "افعی</w>": 6293,
  "dil-e-divana</w>": 6294,
  "shukrana</w>": 6295,
  "سبحۂ</w>": 6296,
  "laghzish-e-": 6297,
  "kyun-kar</w>": 6298,
  "ayyam-e-": 6299,
  "mushkil-pasand</w>": 6300,
  "sham-e-sahar</w>": 6301,
  "ummat</w>": 6302,
  "گھات</w>": 6303,
  "نف": 6304,
  "نفع</w>": 6305,
  "kotah</w>": 6306,
  "nauhagar</w>": 6307,
  "بھڑک</w>": 6308,
  "tham": 6309,
  "talvon</w>": 6310,
  "shams</w>": 6311,
  "kotahi</w>": 6312,
  "sham-o-sahar</w>": 6313,
  "zohra</w>": 6314,
  "giryan</w>": 6315,
  "chhupti</w>": 6316,
  "pareshan-nazari</w>": 6317,
  "بصر</w>": 6318,
  "dil-e-sad-": 6319,
  "دنگ</w>": 6320,
  "طریقت</w>": 6321,
  "khizr-e-": 6322,
  "رکا</w>": 6323,
  "aarsi</w>": 6324,
  "mina-e-mai</w>": 6325,
  "rindon</w>": 6326,
  "قف": 6327,
  "قفل</w>": 6328,
  "سماع</w>": 6329,
  "ayyar</w>": 6330,
  "پتیاں</w>": 6331,
  "timsal-e-": 6332,
  "طۂ</w>": 6333,
  "minnat-kash-e-": 6334,
  "پیما</w>": 6335,
  "عزلت</w>": 6336,
  "سیما</w>": 6337,
  "aina-sima</w>": 6338,
  "مرثیہ</w>": 6339,
  "marsi": 6340,
  "itnon</w>": 6341,
  "nauha-": 6342,
  "خاکستر</w>": 6343,
  "gardan-": 6344,
  "gulshan-e-": 6345,
  "avargan-e-": 6346,
  "tegh-zan</w>": 6347,
  "aina-khana</w>": 6348,
  "راہزن</w>": 6349,
  "ahl-e-zahir</w>": 6350,
  "sa-": 6351,
  "mai-kashon</w>": 6352,
  "abr-e-tar</w>": 6353,
  "پوشی": 6354,
  "پوشیدہ</w>": 6355,
  "uqda</w>": 6356,
  "poshida</w>": 6357,
  "صوت</w>": 6358,
  "واپسیں</w>": 6359,
  "vapsin</w>": 6360,
  "پرچھائیں</w>": 6361,
  "parchhain</w>": 6362,
  "kunj-e-qafas</w>": 6363,
  "sipand</w>": 6364,
  "soz-e-gham</w>": 6365,
  "ریش</w>": 6366,
  "معترض</w>": 6367,
  "mo'tariz</w>": 6368,
  "''</w>": 6369,
  "zulf-e-dota</w>": 6370,
  "nakhl</w>": 6371,
  "بھاگیں</w>": 6372,
  "qasr</w>": 6373,
  "khusrav</w>": 6374,
  "رکاب</w>": 6375,
  "ham-inan</w>": 6376,
  "سلیمان</w>": 6377,
  "بیڑ": 6378,
  "بیڑیاں</w>": 6379,
  "bediyan</w>": 6380,
  "umr-e-rafta</w>": 6381,
  "gumbad-e-gardun</w>": 6382,
  "batla</w>": 6383,
  "کلیجہ</w>": 6384,
  "khvaron</w>": 6385,
  "الجھنے</w>": 6386,
  "ulajhne</w>": 6387,
  "رازیؔ</w>": 6388,
  "'razi": 6389,
  "'razi'</w>": 6390,
  "shekh</w>": 6391,
  "niyam</w>": 6392,
  "سکھاتا</w>": 6393,
  "khak-e-rah</w>": 6394,
  "rail</w>": 6395,
  "begana-var</w>": 6396,
  "na-pae": 6397,
  "na-paedar</w>": 6398,
  "ي</w>": 6399,
  "soz-o-saz-e-": 6400,
  "خوردہ</w>": 6401,
  "khurda</w>": 6402,
  "tegh-bazi</w>": 6403,
  "dil-navazi</w>": 6404,
  "حضوری</w>": 6405,
  "duniya-e-": 6406,
  "duniya-e-dun</w>": 6407,
  "mohkam</w>": 6408,
  "مدرسے</w>": 6409,
  "madrase</w>": 6410,
  "اذاں</w>": 6411,
  "kaf-e-khak</w>": 6412,
  "ہمکنار</w>": 6413,
  "nau-bahar</w>": 6414,
  "احتراز</w>": 6415,
  "nala-e-bulbul</w>": 6416,
  "حجاز</w>": 6417,
  "نرالے</w>": 6418,
  "bhole</w>": 6419,
  "خیمۂ</w>": 6420,
  "khema-e-": 6421,
  "fasl-e-bahari</w>": 6422,
  "کھولا</w>": 6423,
  "khola</w>": 6424,
  "shauq-e-didar</w>": 6425,
  "khar-o-khas</w>": 6426,
  "nistan</w>": 6427,
  "sair-e-gul</w>": 6428,
  "نیل</w>": 6429,
  "mir-e-karvan</w>": 6430,
  "zeb-e-": 6431,
  "ashob</w>": 6432,
  "banda-par": 6433,
  "سمجھاتا</w>": 6434,
  "بتاتا</w>": 6435,
  "taqdir-e-": 6436,
  "جلوت</w>": 6437,
  "jalvat</w>": 6438,
  "شگاف</w>": 6439,
  "q-o-": 6440,
  "be-huzur</w>": 6441,
  "آمادۂ</w>": 6442,
  "کود</w>": 6443,
  "mahv-e-tamasha-e-": 6444,
  "نئ</w>": 6445,
  "سع": 6446,
  "سعئ</w>": 6447,
  "ردائے</w>": 6448,
  "نیلگوں</w>": 6449,
  "raz-e-mohabbat</w>": 6450,
  "zabt-e-fughan</w>": 6451,
  "محمد</w>": 6452,
  "قرآن</w>": 6453,
  "adam-e-khaki</w>": 6454,
  "afrang</w>": 6455,
  "purkar</w>": 6456,
  "مومن</w>": 6457,
  "taskhir-e-": 6458,
  "کھوئی</w>": 6459,
  "khoi</w>": 6460,
  "be-zauq</w>": 6461,
  "asr-e-": 6462,
  "mai-kadon</w>": 6463,
  "عاشقانہ</w>": 6464,
  "رقابت</w>": 6465,
  "mimbar</w>": 6466,
  "suuli</w>": 6467,
  "تقلید</w>": 6468,
  "ایراں</w>": 6469,
  "کھاتا</w>": 6470,
  "نیچے</w>": 6471,
  "niche</w>": 6472,
  "زیبا</w>": 6473,
  "zeba</w>": 6474,
  "غلاموں</w>": 6475,
  "مردان</w>": 6476,
  "mardan-e-": 6477,
  "فرعون</w>": 6478,
  "شتن</w>": 6479,
  "وادیٔ</w>": 6480,
  "قرآں</w>": 6481,
  "kharosh</w>": 6482,
  "طوف</w>": 6483,
  "عفو</w>": 6484,
  "ifsha-e-raz</w>": 6485,
  "فقیری</w>": 6486,
  "عمارت</w>": 6487,
  "بخیل</w>": 6488,
  "sahar-gahi</w>": 6489,
  "غا": 6490,
  "الٰہ</w>": 6491,
  "mata-e-hunar</w>": 6492,
  "be-nava</w>": 6493,
  "arzani</w>": 6494,
  "quvvat</w>": 6495,
  "khud-agahi</w>": 6496,
  "نومید</w>": 6497,
  "بیباکی</w>": 6498,
  "گزراں</w>": 6499,
  "سمجھتی</w>": 6500,
  "samajhti</w>": 6501,
  "احکام</w>": 6502,
  "paivand</w>": 6503,
  "zahr-e-": 6504,
  "کھٹک</w>": 6505,
  "mah-e-kamil</w>": 6506,
  "حکی": 6507,
  "حکیم</w>": 6508,
  "tarbi": 6509,
  "tarbiyat</w>": 6510,
  "تذکرہ</w>": 6511,
  "tazkira</w>": 6512,
  "zulmat-e-shab</w>": 6513,
  "iqbal</w>": 6514,
  "غمزۂ</w>": 6515,
  "ghamza-e-": 6516,
  "دیری": 6517,
  "دیرینہ</w>": 6518,
  "آمیز</w>": 6519,
  "amez</w>": 6520,
  "ناامید</w>": 6521,
  "bazm-e-hasti</w>": 6522,
  "al-aman</w>": 6523,
  "رست": 6524,
  "رستخیز</w>": 6525,
  "tavah": 6526,
  "naghmon</w>": 6527,
  "murgh-e-chaman</w>": 6528,
  "قطار</w>": 6529,
  "تڑپنا</w>": 6530,
  "but-khana</w>": 6531,
  "عظمت</w>": 6532,
  "azmat</w>": 6533,
  "sokhta-": 6534,
  "surme</w>": 6535,
  "بدمست</w>": 6536,
  "badmast</w>": 6537,
  "dard-e-mohabbat</w>": 6538,
  "dast-o-gareban</w>": 6539,
  "خرقہ</w>": 6540,
  "khirqa</w>": 6541,
  "دیوانا</w>": 6542,
  "دئے</w>": 6543,
  "manzil-e-maqsud</w>": 6544,
  "amad-o-shud</w>": 6545,
  "ba-khuda</w>": 6546,
  "zer-e-pa</w>": 6547,
  "yaktai</w>": 6548,
  "danton</w>": 6549,
  "fariyadi</w>": 6550,
  "بھرتے</w>": 6551,
  "bharte</w>": 6552,
  "be-bal-o-par</w>": 6553,
  "فولاد</w>": 6554,
  "but-e-khud-": 6555,
  "yak-ba-yak</w>": 6556,
  "hakim-e-vaqt</w>": 6557,
  "qudrat-e-": 6558,
  "khar-e-gham</w>": 6559,
  "barmala</w>": 6560,
  "حیلہ</w>": 6561,
  "javab-e-": 6562,
  "ah-e-sahar</w>": 6563,
  "عزیزو</w>": 6564,
  "شمائل</w>": 6565,
  "کف": 6566,
  "abr-e-bahari</w>": 6567,
  "نث": 6568,
  "شماری</w>": 6569,
  "be-ikhti": 6570,
  "زگاری</w>": 6571,
  "برداری</w>": 6572,
  "naz-bar": 6573,
  "sozish-e-dil</w>": 6574,
  "bedari</w>": 6575,
  "guhar-": 6576,
  "zulf-e-mushkin</w>": 6577,
  "نصیبوں</w>": 6578,
  "dil-gir</w>": 6579,
  "rusva-e-jahan</w>": 6580,
  "dida-e-nam</w>": 6581,
  "شتی</w>": 6582,
  "khanjar-e-": 6583,
  "iima</w>": 6584,
  "بھیجے</w>": 6585,
  "bheje</w>": 6586,
  "جما</w>": 6587,
  "آٹھ</w>": 6588,
  "دس</w>": 6589,
  "surkhi-e-": 6590,
  "سرکش</w>": 6591,
  "sarkash</w>": 6592,
  "نوخیز</w>": 6593,
  "khirman-e-": 6594,
  "لیوے</w>": 6595,
  "leve</w>": 6596,
  "لگاوٹ</w>": 6597,
  "lagavat</w>": 6598,
  "rakkhun</w>": 6599,
  "saz-o-saman</w>": 6600,
  "chashm-e-dariya-": 6601,
  "اڑاتا</w>": 6602,
  "افگن</w>": 6603,
  "گھبرایا</w>": 6604,
  "ghabraya</w>": 6605,
  "se": 6606,
  "arbada-": 6607,
  "tund-khu</w>": 6608,
  "navak-": 6609,
  "ظن</w>": 6610,
  "بھاگتے</w>": 6611,
  "bhagte</w>": 6612,
  "کھنچتا</w>": 6613,
  "dil-azari</w>": 6614,
  "dushvari</w>": 6615,
  "sehhat</w>": 6616,
  "kasa-e-sar</w>": 6617,
  "likhne</w>": 6618,
  "juzv</w>": 6619,
  "ba-vafa</w>": 6620,
  "روئی</w>": 6621,
  "rui</w>": 6622,
  "dil-jui</w>": 6623,
  "suu": 6624,
  "hovega</w>": 6625,
  "mushk-": 6626,
  "نوشی</w>": 6627,
  "hirs-o-": 6628,
  "hirs-o-hava</w>": 6629,
  "khol": 6630,
  "be-hayai</w>": 6631,
  "jag-": 6632,
  "شکیب</w>": 6633,
  "roz-e-jaza</w>": 6634,
  "khauf-e-khuda</w>": 6635,
  "طبیب</w>": 6636,
  "dardman": 6637,
  "dardmand-e-": 6638,
  "bad-nasib</w>": 6639,
  "چکر</w>": 6640,
  "chakkar</w>": 6641,
  "پتلا</w>": 6642,
  "putla</w>": 6643,
  "پتلے</w>": 6644,
  "putle</w>": 6645,
  "n-": 6646,
  "پہچانتے</w>": 6647,
  "pahchante</w>": 6648,
  "رہزنوں</w>": 6649,
  "ranj-o-gham</w>": 6650,
  "dil-fareb</w>": 6651,
  "دلبروں</w>": 6652,
  "dilbaron</w>": 6653,
  "ایسوں</w>": 6654,
  "aison</w>": 6655,
  "azurda</w>": 6656,
  "sukhan-sanj</w>": 6657,
  "shirin-ada</w>": 6658,
  "josh-e-girya</w>": 6659,
  "مفلس</w>": 6660,
  "muflis</w>": 6661,
  "رکتے</w>": 6662,
  "rukte</w>": 6663,
  "murgh-e-giraftar</w>": 6664,
  "dam-e-bala</w>": 6665,
  "gharat-gar-e-": 6666,
  "زہراب</w>": 6667,
  "ja-ba-": 6668,
  "ja-ba-ja</w>": 6669,
  "tegh-e-nigah</w>": 6670,
  "عذار</w>": 6671,
  "تتار</w>": 6672,
  "بتیاں</w>": 6673,
  "miskin</w>": 6674,
  "بصد</w>": 6675,
  "سپی": 6676,
  "girti</w>": 6677,
  "دھندلے</w>": 6678,
  "dhundle</w>": 6679,
  "khad-o-khal</w>": 6680,
  "میعاد</w>": 6681,
  "فاصلوں</w>": 6682,
  "faslon</w>": 6683,
  "hijr-o-visal</w>": 6684,
  "سچا</w>": 6685,
  "isa-nafas</w>": 6686,
  "دریچوں</w>": 6687,
  "darichon</w>": 6688,
  "barg": 6689,
  "barg-o-": 6690,
  "سفینے</w>": 6691,
  "tahayyur</w>": 6692,
  "پھل</w>": 6693,
  "مہکتا</w>": 6694,
  "ثنا</w>": 6695,
  "marham-e-": 6696,
  "گہرائی</w>": 6697,
  "gahrai</w>": 6698,
  "goyai</w>": 6699,
  "karb</w>": 6700,
  "haail</w>": 6701,
  "چمکتے</w>": 6702,
  "chamakte</w>": 6703,
  "پیمائی</w>": 6704,
  "nigar-": 6705,
  "پیم": 6706,
  "رہگزر</w>": 6707,
  "shikasta-": 6708,
  "رنجشیں</w>": 6709,
  "rah-e-sukhan</w>": 6710,
  "akhtar</w>": 6711,
  "gum-kar": 6712,
  "josh-e-junun</w>": 6713,
  "saqi-e-kausar</w>": 6714,
  "be-sada</w>": 6715,
  "پڑیے</w>": 6716,
  "darvesh</w>": 6717,
  "atish-kada</w>": 6718,
  "sar-ta-pa</w>": 6719,
  "لحظ": 6720,
  "لحظہ</w>": 6721,
  "lahza</w>": 6722,
  "be-talab</w>": 6723,
  "سرسبز</w>": 6724,
  "zi-bas</w>": 6725,
  "نگاۂ</w>": 6726,
  "khud-bini</w>": 6727,
  "yak-alam</w>": 6728,
  "shash-jihat</w>": 6729,
  "arsa</w>": 6730,
  "zauq-e-nazar</w>": 6731,
  "kucha-e-dildar</w>": 6732,
  "ashufta-sar</w>": 6733,
  "آمو": 6734,
  "khana-e-aina</w>": 6735,
  "تمہید</w>": 6736,
  "farosh-e-": 6737,
  "sharminda-e-": 6738,
  "andoh-e-": 6739,
  "mahrumi-e-": 6740,
  "ah-o-zari</w>": 6741,
  "مقدمہ</w>": 6742,
  "muqaddama</w>": 6743,
  "parda-dari</w>": 6744,
  "sarfa</w>": 6745,
  "jan-gudaz</w>": 6746,
  "nim-baz</w>": 6747,
  "gham-e-hijran</w>": 6748,
  "piyala</w>": 6749,
  "gul-chin</w>": 6750,
  "gustakhi-e-": 6751,
  "سمائی</w>": 6752,
  "pesh-e-nazar</w>": 6753,
  "ابجد</w>": 6754,
  "چارۂ</w>": 6755,
  "زح": 6756,
  "زحمت</w>": 6757,
  "حنائی</w>": 6758,
  "angusht-e-hinai</w>": 6759,
  "ba-tarz-e-": 6760,
  "vaqf-e-": 6761,
  "uftada</w>": 6762,
  "khvab-e-zulekha</w>": 6763,
  "hijr-e-yar</w>": 6764,
  "farebi</w>": 6765,
  "qulzum-e-": 6766,
  "hamraz</w>": 6767,
  "‌ہا</w>": 6768,
  "ahl-e-jahan</w>": 6769,
  "abru-e-": 6770,
  "رکتا</w>": 6771,
  "mauj-e-mai</w>": 6772,
  "حریص</w>": 6773,
  "barq-e-tajalli</w>": 6774,
  "zarf-e-": 6775,
  "بازوئے</w>": 6776,
  "bazu-e-": 6777,
  "ghair-az-": 6778,
  "shirin-sukhan</w>": 6779,
  "شبانہ</w>": 6780,
  "jada-e-manzil</w>": 6781,
  "garm-e-tamasha</w>": 6782,
  "ہفت</w>": 6783,
  "gosha-e-daman</w>": 6784,
  "zunnar-e-": 6785,
  "دھوتا</w>": 6786,
  "allah-re</w>": 6787,
  "ہلتے</w>": 6788,
  "be-mehri-e-": 6789,
  "اڑانے</w>": 6790,
  "jada-e-rah</w>": 6791,
  "ہنستی</w>": 6792,
  "hansti</w>": 6793,
  "یگانہ</w>": 6794,
  "دوئی</w>": 6795,
  "dui</w>": 6796,
  "kar-gah-e-": 6797,
  "roenge</w>": 6798,
  "za-khud</w>": 6799,
  "sar-nigun</w>": 6800,
  "ودی": 6801,
  "ودیعت</w>": 6802,
  "vadi": 6803,
  "آتش</w>": 6804,
  "aghosh-e-vidaa</w>": 6805,
  "آئی": 6806,
  "مکتوب</w>": 6807,
  "maktub</w>": 6808,
  "تحمل</w>": 6809,
  "tahammul</w>": 6810,
  "ضامن</w>": 6811,
  "kar-farma</w>": 6812,
  "دماغی</w>": 6813,
  "par-afshan</w>": 6814,
  "خمیازۂ</w>": 6815,
  "arbada</w>": 6816,
  "daregh</w>": 6817,
  "تذکر": 6818,
  "تذکرۂ</w>": 6819,
  "gham-e-ulfat</w>": 6820,
  "be-kasi</w>": 6821,
  "mahshar-e-": 6822,
  "بونی</w>": 6823,
  "انفعال</w>": 6824,
  "infi": 6825,
  "infial</w>": 6826,
  "عدل</w>": 6827,
  "ghaflat-": 6828,
  "ad": 6829,
  "mahram-e-raz</w>": 6830,
  "pursish-e-": 6831,
  "شکستن</w>": 6832,
  "be-dad-e-": 6833,
  "satvat-e-": 6834,
  "resha</w>": 6835,
  "اگا</w>": 6836,
  "گھاس</w>": 6837,
  "آرزوئیں</w>": 6838,
  "khun-gashta</w>": 6839,
  "arzuen</w>": 6840,
  "غریباں</w>": 6841,
  "rah-e-fana</w>": 6842,
  "دیجیے</w>": 6843,
  "qahr-o-": 6844,
  "خون": 6845,
  "خونچکاں</w>": 6846,
  "قۂ</w>": 6847,
  "qa-e-": 6848,
  "barg-e-hina</w>": 6849,
  "پریشانیٔ</w>": 6850,
  "فگن</w>": 6851,
  "chashm-e-khuban</w>": 6852,
  "لڑکوں</w>": 6853,
  "ladkon</w>": 6854,
  "کھود</w>": 6855,
  "khod</w>": 6856,
  "ریزۂ</w>": 6857,
  "نشو</w>": 6858,
  "nashv-o-": 6859,
  "گیتی</w>": 6860,
  "bal-kusha</w>": 6861,
  "dast-e-shana</w>": 6862,
  "طوفانی</w>": 6863,
  "kam-tar</w>": 6864,
  "zaval</w>": 6865,
  "سرمایۂ</w>": 6866,
  "sarmaya-e-": 6867,
  "بیضۂ</w>": 6868,
  "anjam-e-": 6869,
  "fikr-e-sukhan</w>": 6870,
  "uryani</w>": 6871,
  "آبگینہ</w>": 6872,
  "mast-e-naz</w>": 6873,
  "تجدید</w>": 6874,
  "tajdid-e-": 6875,
  "گاۂ</w>": 6876,
  "chashm-e-yar</w>": 6877,
  "جوشش</w>": 6878,
  "joshish-e-": 6879,
  "نسخۂ</w>": 6880,
  "nuskha-e-": 6881,
  "dagh-e-tamanna</w>": 6882,
  "soz-e-mohabbat</w>": 6883,
  "be-muhaba</w>": 6884,
  "tukhm-e-": 6885,
  "شناسی</w>": 6886,
  "bahla": 6887,
  "تپیدن</w>": 6888,
  "pari-vash</w>": 6889,
  "rahn-e-": 6890,
  "آشفت": 6891,
  "پردۂ</w>": 6892,
  "jauhar-": 6893,
  "'be": 6894,
  "'bedil": 6895,
  "'bedil'</w>": 6896,
  "tavaqqo": 6897,
  "tavaqqoa</w>": 6898,
  "sipas-e-": 6899,
  "طولانی</w>": 6900,
  "طراوت</w>": 6901,
  "mom</w>": 6902,
  "par-fishani</w>": 6903,
  "شعلۂ</w>": 6904,
  "دھوئیں</w>": 6905,
  "dhuen</w>": 6906,
  "مقرر</w>": 6907,
  "millat</w>": 6908,
  "پھروں</w>": 6909,
  "ab-o-hava</w>": 6910,
  "umr-e-khizr</w>": 6911,
  "تگی</w>": 6912,
  "naved</w>": 6913,
  "صاد</w>": 6914,
  "nashtar-e-": 6915,
  "مز": 6916,
  "کردنی</w>": 6917,
  "kardani</w>": 6918,
  "pahlu-": 6919,
  "be-parda</w>": 6920,
  "yak-jahan</w>": 6921,
  "فرط</w>": 6922,
  "fart-e-": 6923,
  "khvabi</w>": 6924,
  "سوختن</w>": 6925,
  "sokhtan</w>": 6926,
  "do-jahan</w>": 6927,
  "hashr-e-": 6928,
  "be-rabti-e-": 6929,
  "navard</w>": 6930,
  "chhede</w>": 6931,
  "zauq-e-fana</w>": 6932,
  "ruyon</w>": 6933,
  "be-dava</w>": 6934,
  "خجلت</w>": 6935,
  "طفلی</w>": 6936,
  "tifli</w>": 6937,
  "عضو</w>": 6938,
  "uzv</w>": 6939,
  "گلخن</w>": 6940,
  "gulkhan</w>": 6941,
  "تباہی</w>": 6942,
  "کلیجا</w>": 6943,
  "ٹھنڈا</w>": 6944,
  "shevan</w>": 6945,
  "ju-e-khun</w>": 6946,
  "بننے</w>": 6947,
  "banne</w>": 6948,
  "vafa-dari</w>": 6949,
  "لٹتا</w>": 6950,
  "ڈرے</w>": 6951,
  "پہچانتا</w>": 6952,
  "pahchanta</w>": 6953,
  "talkhi-e-": 6954,
  "دھم": 6955,
  "sohbat-e-rindan</w>": 6956,
  "استقبال</w>": 6957,
  "خستگی</w>": 6958,
  "khastagi</w>": 6959,
  "zamzam</w>": 6960,
  "غسل</w>": 6961,
  "ghusl-e-": 6962,
  "مضامیں</w>": 6963,
  "satae</w>": 6964,
  "bulae</w>": 6965,
  "دبستاں</w>": 6966,
  "dabistan</w>": 6967,
  "takalluf-": 6968,
  "kaghaz-e-atish-": 6969,
  "kaghaz-e-atish-zada</w>": 6970,
  "dil-e-be-muddaa</w>": 6971,
  "رسوم</w>": 6972,
  "dukan-e-": 6973,
  "ham-sae</w>": 6974,
  "فدا</w>": 6975,
  "be-khudi-e-": 6976,
  "ناچتے</w>": 6977,
  "nachte</w>": 6978,
  "lagao</w>": 6979,
  "کھائیں</w>": 6980,
  "buud</w>": 6981,
  "ڈھان": 6982,
  "شنو": 6983,
  "شنود</w>": 6984,
  "kishvar-e-": 6985,
  "قماش</w>": 6986,
  "shole</w>": 6987,
  "مجبوری</w>": 6988,
  "اندازہ</w>": 6989,
  "kargar</w>": 6990,
  "nishtar</w>": 6991,
  "sarir-e-khama</w>": 6992,
  "دینی</w>": 6993,
  "nazr</w>": 6994,
  "deni</w>": 6995,
  "خمی": 6996,
  "خوبیٔ</w>": 6997,
  "koh-e-tur</w>": 6998,
  "gham-e-hasti</w>": 6999,
  "chhodenge</w>": 7000,
  "az-sar-e-": 7001,
  "az-sar-e-nau</w>": 7002,
  "riha</w>": 7003,
  "nukta-": 7004,
  "bujhae</w>": 7005,
  "طعنہ</w>": 7006,
  "gulchin</w>": 7007,
  "muzhda</w>": 7008,
  "عہ": 7009,
  "ahl-e-duniya</w>": 7010,
  "zoaf-e-": 7011,
  "junun-e-ishq</w>": 7012,
  "atish-e-dozakh</w>": 7013,
  "نجوم</w>": 7014,
  "ناگہانی</w>": 7015,
  "na-gahani</w>": 7016,
  "لرز": 7017,
  "mohr</w>": 7018,
  "بدخشاں</w>": 7019,
  "سونپ</w>": 7020,
  "saunp</w>": 7021,
  "bazm-e-mai</w>": 7022,
  "bad-e-bahari</w>": 7023,
  "رۂ</w>": 7024,
  "zarra-e-": 7025,
  "ایاغ</w>": 7026,
  "abr-e-bahar</w>": 7027,
  "tar-e-nafas</w>": 7028,
  "be-maza</w>": 7029,
  "taqrib-e-": 7030,
  "مضامی": 7031,
  "مضامین</w>": 7032,
  "zulmat-": 7033,
  "husn-e-khud-ara</w>": 7034,
  "taslim-e-": 7035,
  "gauhar-": 7036,
  "bazm-e-khayal</w>": 7037,
  "nosh</w>": 7038,
  "shorish-e-": 7039,
  "سپرد</w>": 7040,
  "supurd</w>": 7041,
  "ahl-e-karam</w>": 7042,
  "khuda-na-karda</w>": 7043,
  "کپڑے</w>": 7044,
  "kapde</w>": 7045,
  "subh-e-vatan</w>": 7046,
  "ab-o-dana</w>": 7047,
  "daman-gir</w>": 7048,
  "gulfam</w>": 7049,
  "durd-e-": 7050,
  "صافی</w>": 7051,
  "halanki</w>": 7052,
  "thahren</w>": 7053,
  "bazm-e-sukhan</w>": 7054,
  "تفر": 7055,
  "تفرقہ</w>": 7056,
  "qibla-e-hajat</w>": 7057,
  "منج": 7058,
  "gham-e-zamana</w>": 7059,
  "aaiyo</w>": 7060,
  "nasheb-o-": 7061,
  "nasheb-o-faraz</w>": 7062,
  "سویداۓ</w>": 7063,
  "suvaida-e-": 7064,
  "سونپا</w>": 7065,
  "saunpa</w>": 7066,
  "بجھتے</w>": 7067,
  "bujhte</w>": 7068,
  "dud-e-charagh-e-kushta</w>": 7069,
  "آلود</w>": 7070,
  "مبادا</w>": 7071,
  "بادبان</w>": 7072,
  "khud-arai</w>": 7073,
  "نشۂ</w>": 7074,
  "بوتا</w>": 7075,
  "tukda</w>": 7076,
  "dil-e-vahshi</w>": 7077,
  "shikva-": 7078,
  "مونس</w>": 7079,
  "didar-e-dost</w>": 7080,
  "عنبر</w>": 7081,
  "گتی</w>": 7082,
  "pa-bo": 7083,
  "ghuncha-o-": 7084,
  "ghuncha-o-gul</w>": 7085,
  "shab-e-mah</w>": 7086,
  "khulne</w>": 7087,
  "لقب</w>": 7088,
  "mizha-e-yar</w>": 7089,
  "جاوداں</w>": 7090,
  "bala-e-jan</w>": 7091,
  "نطق</w>": 7092,
  "nutq</w>": 7093,
  "nigah-e-be-": 7094,
  "گرداں</w>": 7095,
  "سطح</w>": 7096,
  "ru-kash-e-": 7097,
  "badshah</w>": 7098,
  "کھائیے</w>": 7099,
  "قبائے</w>": 7100,
  "نوازش</w>": 7101,
  "پوچھنا</w>": 7102,
  "puchhna</w>": 7103,
  "ruba</w>": 7104,
  "roz-e-hashr</w>": 7105,
  "sham-e-bazm-e-": 7106,
  "dar-e-yar</w>": 7107,
  "gustakhi</w>": 7108,
  "dil-e-ranjur</w>": 7109,
  "bazm-e-jahan</w>": 7110,
  "subh-e-bahar</w>": 7111,
  "nek-": 7112,
  "اشتیاق</w>": 7113,
  "sham-e-firaq</w>": 7114,
  "لکیریں</w>": 7115,
  "mushkilen</w>": 7116,
  "dushvar-": 7117,
  "ahd-": 7118,
  "ahd-shikan</w>": 7119,
  "vahdat</w>": 7120,
  "likhvae</w>": 7121,
  "گھبرائے</w>": 7122,
  "ہودہ</w>": 7123,
  "حصار</w>": 7124,
  "خیرات</w>": 7125,
  "sochna</w>": 7126,
  "بھوک</w>": 7127,
  "bhuuk</w>": 7128,
  "دکانوں</w>": 7129,
  "مجازی</w>": 7130,
  "dharm</w>": 7131,
  "میدانوں</w>": 7132,
  "qurbani</w>": 7133,
  "اڑائے</w>": 7134,
  "بکھرتا</w>": 7135,
  "bikharta</w>": 7136,
  "شائستہ</w>": 7137,
  "دیو": 7138,
  "dev": 7139,
  "bavajud</w>": 7140,
  "دہشت</w>": 7141,
  "islam</w>": 7142,
  "سنسار</w>": 7143,
  "sansar</w>": 7144,
  "روٹھا</w>": 7145,
  "بھیگ</w>": 7146,
  "bhii": 7147,
  "bhiig</w>": 7148,
  "سڑکوں</w>": 7149,
  "sadkon</w>": 7150,
  "ڈس</w>": 7151,
  "suhana</w>": 7152,
  "گیہوں</w>": 7153,
  "an-ban</w>": 7154,
  "نکلو</w>": 7155,
  "نہا</w>": 7156,
  "niklo</w>": 7157,
  "ہٹا</w>": 7158,
  "دھوکہ</w>": 7159,
  "mandiron</w>": 7160,
  "khoj</w>": 7161,
  "مکانوں</w>": 7162,
  "خبروں</w>": 7163,
  "khabron</w>": 7164,
  "bant": 7165,
  "bachna</w>": 7166,
  "ہنسنا</w>": 7167,
  "hansna</w>": 7168,
  "جھکتی</w>": 7169,
  "jhukti</w>": 7170,
  "دھیمے</w>": 7171,
  "روٹی</w>": 7172,
  "اٹ</w>": 7173,
  "جاگی</w>": 7174,
  "موہن</w>": 7175,
  "وعدوں</w>": 7176,
  "badalna</w>": 7177,
  "دھانی</w>": 7178,
  "چمکا</w>": 7179,
  "pyala</w>": 7180,
  "chamka</w>": 7181,
  "or</w>": 7182,
  "divani</w>": 7183,
  "لیجے</w>": 7184,
  "liije</w>": 7185,
  "بزرگوں</w>": 7186,
  "buzurgon</w>": 7187,
  "kirdar</w>": 7188,
  "ghuum</w>": 7189,
  "uljhi</w>": 7190,
  "masruf</w>": 7191,
  "بیل</w>": 7192,
  "bel</w>": 7193,
  "فیصلے</w>": 7194,
  "faisle</w>": 7195,
  "gum-sum</w>": 7196,
  "بوڑھ": 7197,
  "بوڑھی</w>": 7198,
  "pur-sukun</w>": 7199,
  "آب": 7200,
  "shaklen</w>": 7201,
  "pahnai</w>": 7202,
  "بجھتا</w>": 7203,
  "bujhta</w>": 7204,
  "چول": 7205,
  "چولھے</w>": 7206,
  "chulhe</w>": 7207,
  "امڈ": 7208,
  "rivayat</w>": 7209,
  "path": 7210,
  "برگد</w>": 7211,
  "zai": 7212,
  "ہل": 7213,
  "ہلکا</w>": 7214,
  "halka</w>": 7215,
  "سیڑھیاں</w>": 7216,
  "utarte</w>": 7217,
  "sikke</w>": 7218,
  "sone</w>": 7219,
  "kandhe</w>": 7220,
  "فصلیں</w>": 7221,
  "faslen</w>": 7222,
  "shuaen</w>": 7223,
  "چھلکا</w>": 7224,
  "رلا</w>": 7225,
  "safha</w>": 7226,
  "رلائیں</w>": 7227,
  "بھیج</w>": 7228,
  "bhej</w>": 7229,
  "ahl-e-siyasat</w>": 7230,
  "جھک</w>": 7231,
  "do-rangi</w>": 7232,
  "پگ</w>": 7233,
  "banki</w>": 7234,
  "ریحاں</w>": 7235,
  "شتابی</w>": 7236,
  "rai": 7237,
  "raihan</w>": 7238,
  "بازاں</w>": 7239,
  "khush-ada</w>": 7240,
  "kui</w>": 7241,
  "عاقبت</w>": 7242,
  "وض</w>": 7243,
  "atish-e-gham</w>": 7244,
  "matla-e-": 7245,
  "کبو": 7246,
  "کبوتر</w>": 7247,
  "muamma</w>": 7248,
  "ganj-e-": 7249,
  "be-qararon</w>": 7250,
  "atish-e-ishq</w>": 7251,
  "تفصی": 7252,
  "تفصیل</w>": 7253,
  "tafsil</w>": 7254,
  "parvar": 7255,
  "طاقتی</w>": 7256,
  "محبتیں</w>": 7257,
  "mohabbaten</w>": 7258,
  "شکایتیں</w>": 7259,
  "مبہم</w>": 7260,
  "be-vafa</w>": 7261,
  "ٹوٹیں</w>": 7262,
  "bekar</w>": 7263,
  "jan-e-'faraz'</w>": 7264,
  "aziyyat</w>": 7265,
  "bebasi</w>": 7266,
  "ambar</w>": 7267,
  "قبائیں</w>": 7268,
  "qabaen</w>": 7269,
  "khudaon</w>": 7270,
  "بڑھتی</w>": 7271,
  "badhti</w>": 7272,
  "bakhshish-e-": 7273,
  "معجزے</w>": 7274,
  "moajize</w>": 7275,
  "تتلیاں</w>": 7276,
  "titliyan</w>": 7277,
  "متصل</w>": 7278,
  "گردشیں</w>": 7279,
  "gardishen</w>": 7280,
  "بچھڑنا</w>": 7281,
  "shaer</w>": 7282,
  "حفاظ": 7283,
  "maqtal-e-": 7284,
  "maqtal-e-shahr</w>": 7285,
  "mashq-e-sitam</w>": 7286,
  "rok": 7287,
  "paemal</w>": 7288,
  "zoam</w>": 7289,
  "inhi</w>": 7290,
  "موض": 7291,
  "موضوع</w>": 7292,
  "mauzu-e-": 7293,
  "اچھال</w>": 7294,
  "sada-dilon</w>": 7295,
  "مینہ</w>": 7296,
  "menh</w>": 7297,
  "تھل</w>": 7298,
  "jal-t": 7299,
  "jal-thal</w>": 7300,
  "ناصحو</w>": 7301,
  "آسمانوں</w>": 7302,
  "asmanon</w>": 7303,
  "dulhan</w>": 7304,
  "منصف</w>": 7305,
  "دکھتا</w>": 7306,
  "be-piye</w>": 7307,
  "gham-e-janan</w>": 7308,
  "mahfil-e-": 7309,
  "کانپ</w>": 7310,
  "kaanp</w>": 7311,
  "روٹھی</w>": 7312,
  "amr</w>": 7313,
  "آسیب</w>": 7314,
  "aaseb</w>": 7315,
  "علما</w>": 7316,
  "ذب</w>": 7317,
  "lams</w>": 7318,
  "انسانوں</w>": 7319,
  "insanon</w>": 7320,
  "جھیل</w>": 7321,
  "jhi": 7322,
  "jhiil</w>": 7323,
  "مشغ": 7324,
  "ilzam-e-": 7325,
  "sog": 7326,
  "بھلائے</w>": 7327,
  "bhulae</w>": 7328,
  "گہرا</w>": 7329,
  "gahra</w>": 7330,
  "takmil-e-": 7331,
  "جذبے</w>": 7332,
  "jazbe</w>": 7333,
  "ڈھلتے</w>": 7334,
  "ملبوس</w>": 7335,
  "چونکا</w>": 7336,
  "chaunka</w>": 7337,
  "لوگو</w>": 7338,
  "logo</w>": 7339,
  "jiyenge</w>": 7340,
  "جھونکے</w>": 7341,
  "jhonke</w>": 7342,
  "lahron</w>": 7343,
  "دریچہ</w>": 7344,
  "daricha</w>": 7345,
  "سمیٹے</w>": 7346,
  "میلہ</w>": 7347,
  "mela</w>": 7348,
  "naqd-e-jan</w>": 7349,
  "ta-ba-sahar</w>": 7350,
  "جیتنے</w>": 7351,
  "آی": 7352,
  "ابھرتی</w>": 7353,
  "ubharti</w>": 7354,
  "نوچ</w>": 7355,
  "noch</w>": 7356,
  "be-vajh</w>": 7357,
  "thaharti</w>": 7358,
  "اصولوں</w>": 7359,
  "حادثوں</w>": 7360,
  "hadson</w>": 7361,
  "بہتی</w>": 7362,
  "bahti</w>": 7363,
  "غزلیں</w>": 7364,
  "ghazlen</w>": 7365,
  "hausla-": 7366,
  "hausla-af": 7367,
  "bad-nam</w>": 7368,
  "takte</w>": 7369,
  "رفاقتوں</w>": 7370,
  "umr-": 7371,
  "umr-bhar</w>": 7372,
  "tulu-e-": 7373,
  "dopahar</w>": 7374,
  "بختوں</w>": 7375,
  "bakhton</w>": 7376,
  "اعدا</w>": 7377,
  "kasrat</w>": 7378,
  "صانع</w>": 7379,
  "آستینوں</w>": 7380,
  "astinon</w>": 7381,
  "بیٹھنے</w>": 7382,
  "baithne</w>": 7383,
  "چھان</w>": 7384,
  "آبگینوں</w>": 7385,
  "the": 7386,
  "abginon</w>": 7387,
  "بختی</w>": 7388,
  "bakhti</w>": 7389,
  "ٹوٹنے</w>": 7390,
  "tutne</w>": 7391,
  "امیروں</w>": 7392,
  "ون": 7393,
  "zehn-e-": 7394,
  "nigal</w>": 7395,
  "ڈھونڈھتے</w>": 7396,
  "گھی": 7397,
  "پھیلی</w>": 7398,
  "ku-ba-": 7399,
  "ku-ba-ku</w>": 7400,
  "uthaen</w>": 7401,
  "vaen</w>": 7402,
  "karobar-e-ulfat</w>": 7403,
  "چھالے</w>": 7404,
  "زدوں</w>": 7405,
  "gham-zadon</w>": 7406,
  "سماعتوں</w>": 7407,
  "جھیلے</w>": 7408,
  "jhele</w>": 7409,
  "طریقے</w>": 7410,
  "puure</w>": 7411,
  "mez": 7412,
  "سمجھاتے</w>": 7413,
  "رنگت</w>": 7414,
  "chheda</w>": 7415,
  "ذہانت</w>": 7416,
  "پرچم</w>": 7417,
  "parcham</w>": 7418,
  "دیکھتی</w>": 7419,
  "dekhti</w>": 7420,
  "elan-e-": 7421,
  "bachne</w>": 7422,
  "na-samajh</w>": 7423,
  "سمجھائے</w>": 7424,
  "samjhae</w>": 7425,
  "جھکانا</w>": 7426,
  "بڑھی</w>": 7427,
  "miyat</w>": 7428,
  "بھولنا</w>": 7429,
  "bhulna</w>": 7430,
  "bichhda</w>": 7431,
  "تیزی</w>": 7432,
  "tezi</w>": 7433,
  "چھوٹ</w>": 7434,
  "janm</w>": 7435,
  "rah-numa</w>": 7436,
  "milae</w>": 7437,
  "jam-e-shahadat</w>": 7438,
  "بازوؤں</w>": 7439,
  "مہکتی</w>": 7440,
  "bazuon</w>": 7441,
  "mahakti</w>": 7442,
  "بھیگے</w>": 7443,
  "جھرمٹ</w>": 7444,
  "jhurmut</w>": 7445,
  "دیش</w>": 7446,
  "desh</w>": 7447,
  "masiha-": 7448,
  "حقیقتیں</w>": 7449,
  "marhala-e-": 7450,
  "khush-gavar</w>": 7451,
  "gham-e-hayat</w>": 7452,
  "ruh</w>": 7453,
  "نسل</w>": 7454,
  "khun-e-shahidan</w>": 7455,
  "پشیمانی</w>": 7456,
  "pashemani</w>": 7457,
  "پونچھ</w>": 7458,
  "pon": 7459,
  "ponchh</w>": 7460,
  "nafraton</w>": 7461,
  "sang-e-malamat</w>": 7462,
  "sunaen</w>": 7463,
  "khayal-e-kham</w>": 7464,
  "فلس": 7465,
  "فلسفہ</w>": 7466,
  "barsar-e-": 7467,
  "حبی": 7468,
  "حبیب</w>": 7469,
  "sanv": 7470,
  "pachhtaoge</w>": 7471,
  "ٹھکرا</w>": 7472,
  "thukra</w>": 7473,
  "ubhrenge</w>": 7474,
  "مرحوم</w>": 7475,
  "marhum</w>": 7476,
  "jurm-e-mohabbat</w>": 7477,
  "نتی": 7478,
  "quvvat-e-": 7479,
  "دلیلیں</w>": 7480,
  "قس": 7481,
  "khalvat-": 7482,
  "غالبا": 7483,
  "غالباً</w>": 7484,
  "izn-e-": 7485,
  "jan-o-dil</w>": 7486,
  "واسطہ</w>": 7487,
  "talne</w>": 7488,
  "dar-pesh</w>": 7489,
  "jam-ba-jam</w>": 7490,
  "yadgar</w>": 7491,
  "jan-nisar</w>": 7492,
  "سید</w>": 7493,
  "زک</w>": 7494,
  "لبادہ</w>": 7495,
  "tahsin</w>": 7496,
  "پہچانی</w>": 7497,
  "sukun-e-": 7498,
  "تعلقات</w>": 7499,
  "sar-e-taslim</w>": 7500,
  "جوبن</w>": 7501,
  "joban</w>": 7502,
  "چھنتی</w>": 7503,
  "chashm-e-shauq</w>": 7504,
  "chhanti</w>": 7505,
  "laega</w>": 7506,
  "سچی</w>": 7507,
  "ranj-e-furqat</w>": 7508,
  "paigham-": 7509,
  "paigham-bar</w>": 7510,
  "milao</w>": 7511,
  "na-rava</w>": 7512,
  "na-khushi</w>": 7513,
  "ham-jin": 7514,
  "کانٹا</w>": 7515,
  "kanta</w>": 7516,
  "rah-rav-e-": 7517,
  "dil-e-nashad</w>": 7518,
  "pur-nur</w>": 7519,
  "کھنچتی</w>": 7520,
  "manaen</w>": 7521,
  "sehr-": 7522,
  "جتانے</w>": 7523,
  "khana-e-hasti</w>": 7524,
  "رکھئے</w>": 7525,
  "شبہ</w>": 7526,
  "vada-e-didar</w>": 7527,
  "انہوں</w>": 7528,
  "unhon</w>": 7529,
  "dil-e-ashiq</w>": 7530,
  "farmate</w>": 7531,
  "shokhi-e-raftar</w>": 7532,
  "سمائے</w>": 7533,
  "hazrat-e-va": 7534,
  "hazrat-e-vaiz</w>": 7535,
  "soz-o-gudaz</w>": 7536,
  "pak-baz</w>": 7537,
  "نگہباں</w>": 7538,
  "بجتے</w>": 7539,
  "bajte</w>": 7540,
  "maryam</w>": 7541,
  "''": 7542,
  "mehrbaniyan</w>": 7543,
  "tashvish</w>": 7544,
  "موزوں</w>": 7545,
  "اٹھنے</w>": 7546,
  "uthne</w>": 7547,
  "جھومتی</w>": 7548,
  "jhumti</w>": 7549,
  "qalb-e-": 7550,
  "be-khata</w>": 7551,
  "sidq</w>": 7552,
  "tah-nashin</w>": 7553,
  "naav</w>": 7554,
  "rah-e-talab</w>": 7555,
  "ehsan-o-": 7556,
  "shakeba</w>": 7557,
  "mai-khvar</w>": 7558,
  "puura</w>": 7559,
  "dar-e-rahmat</w>": 7560,
  "شکیبائی</w>": 7561,
  "shakebai</w>": 7562,
  "makhmur</w>": 7563,
  "بھلایا</w>": 7564,
  "رضائے</w>": 7565,
  "ashna": 7566,
  "vaqf</w>": 7567,
  "نیچی</w>": 7568,
  "nichi</w>": 7569,
  "صحبتیں</w>": 7570,
  "اگلی</w>": 7571,
  "sohbaten</w>": 7572,
  "agli</w>": 7573,
  "للہ</w>": 7574,
  "vardat</w>": 7575,
  "divana-": 7576,
  "پچھتائیے</w>": 7577,
  "pachhtaiyega</w>": 7578,
  "ہنستا</w>": 7579,
  "hansta</w>": 7580,
  "کھڑکیاں</w>": 7581,
  "khidkiyan</w>": 7582,
  "harim-e-naz</w>": 7583,
  "گیتوں</w>": 7584,
  "معت": 7585,
  "معتبر</w>": 7586,
  "mo'tabar</w>": 7587,
  "کھلیں</w>": 7588,
  "رموز</w>": 7589,
  "basae</w>": 7590,
  "col": 7591,
  "شمع": 7592,
  "شمعوں</w>": 7593,
  "جوت</w>": 7594,
  "jot</w>": 7595,
  "dti</w>": 7596,
  "انسانیت</w>": 7597,
  "insani": 7598,
  "insaniyat</w>": 7599,
  "'mir'-o-": 7600,
  "'mir'-o-'ghalib'</w>": 7601,
  "darbar</w>": 7602,
  "janab-e-shaikh</w>": 7603,
  "muqabla</w>": 7604,
  "لچکتی</w>": 7605,
  "lachakti</w>": 7606,
  "پھیلے</w>": 7607,
  "gham-e-jahan</w>": 7608,
  "سوغات</w>": 7609,
  "ابھرنے</w>": 7610,
  "shaista-e-": 7611,
  "لمحۂ</w>": 7612,
  "lamha-e-": 7613,
  "دئیے</w>": 7614,
  "baste</w>": 7615,
  "hazrat-e-'akbar'</w>": 7616,
  "کشف</w>": 7617,
  "betabiyan</w>": 7618,
  "قومی</w>": 7619,
  "دھڑکنے</w>": 7620,
  "dhadakne</w>": 7621,
  "lillah</w>": 7622,
  "چھاپ</w>": 7623,
  "sehn-e-chaman</w>": 7624,
  "شیطان</w>": 7625,
  "سوتی</w>": 7626,
  "soti</w>": 7627,
  "dasht-o-": 7628,
  "jamal-e-yar</w>": 7629,
  "کھوتا</w>": 7630,
  "ایدھر</w>": 7631,
  "ma-siva</w>": 7632,
  "masarrat</w>": 7633,
  "rang-e-gulshan</w>": 7634,
  "بھرنے</w>": 7635,
  "be-naqab</w>": 7636,
  "akhir-e-shab</w>": 7637,
  "jalvon</w>": 7638,
  "vahm-o-guman</w>": 7639,
  "lafz-o-": 7640,
  "intizar-e-yar</w>": 7641,
  "ahl-e-mohabbat</w>": 7642,
  "کروٹیں</w>": 7643,
  "karvaten</w>": 7644,
  "jalva-gah-e-naz</w>": 7645,
  "جگمگا</w>": 7646,
  "jagmaga</w>": 7647,
  "zabt-e-mohabbat</w>": 7648,
  "husn-o-ishq</w>": 7649,
  "maaz-allah</w>": 7650,
  "حادثات</w>": 7651,
  "سمیٹ</w>": 7652,
  "darpai</w>": 7653,
  "daman-kashan</w>": 7654,
  "khinchte</w>": 7655,
  "نوشتۂ</w>": 7656,
  "navishta-e-": 7657,
  "navishta-e-qismat</w>": 7658,
  "phod</w>": 7659,
  "sambhalna</w>": 7660,
  "رعشہ</w>": 7661,
  "bad-e-murad</w>": 7662,
  "کشتئ</w>": 7663,
  "karvan-": 7664,
  "karvan-dar-": 7665,
  "karvan-dar-karvan</w>": 7666,
  "بیتابیٔ</w>": 7667,
  "betabi-e-dil</w>": 7668,
  "ہچ": 7669,
  "ہچکیاں</w>": 7670,
  "hich": 7671,
  "hichkiyan</w>": 7672,
  "na-mumkin</w>": 7673,
  "لڑکھڑ": 7674,
  "rau-o-": 7675,
  "bar-e-giran</w>": 7676,
  "asman-": 7677,
  "niklega</w>": 7678,
  "saya-e-divar</w>": 7679,
  "andaz-e-fughan</w>": 7680,
  "پریدہ</w>": 7681,
  "rang-e-paridan</w>": 7682,
  "ba-hasrat</w>": 7683,
  "az-khud</w>": 7684,
  "vird-e-": 7685,
  "ah-e-be-asar</w>": 7686,
  "nakhl-e-be-samar</w>": 7687,
  "maaal</w>": 7688,
  "lutma-e-": 7689,
  "lutma-e-mauj</w>": 7690,
  "sar-e-pur-ghurur</w>": 7691,
  "عشوۂ</w>": 7692,
  "خطی": 7693,
  "خطیب</w>": 7694,
  "aql-o-": 7695,
  "gham-e-intizar</w>": 7696,
  "گرج</w>": 7697,
  "انگبیں</w>": 7698,
  "angbin</w>": 7699,
  "ghussa</w>": 7700,
  "sabza-e-begana</w>": 7701,
  "shab-e-aish</w>": 7702,
  "ahl-e-bazm</w>": 7703,
  "sajda-e-shukrana</w>": 7704,
  "subha-e-sad-": 7705,
  "subha-e-sad-dana</w>": 7706,
  "laghzish-e-mastana</w>": 7707,
  "مہیب</w>": 7708,
  "muhib</w>": 7709,
  "mashrab-e-": 7710,
  "tir-e-nigah</w>": 7711,
  "lahr</w>": 7712,
  "میوہ</w>": 7713,
  "turfa": 7714,
  "turfa-": 7715,
  "معدوم</w>": 7716,
  "dil-ju</w>": 7717,
  "حج</w>": 7718,
  "وعدۂ</w>": 7719,
  "tahi-dast</w>": 7720,
  "tab-e-intizar</w>": 7721,
  "durr-e-": 7722,
  "shahvar</w>": 7723,
  "mamnun</w>": 7724,
  "amrit</w>": 7725,
  "شگوف": 7726,
  "شگوفے</w>": 7727,
  "shagufe</w>": 7728,
  "riyai</w>": 7729,
  "تھمتا</w>": 7730,
  "thamta</w>": 7731,
  "aqibat-andesh</w>": 7732,
  "barhana-": 7733,
  "پھیری</w>": 7734,
  "دوڑ</w>": 7735,
  "جھکائے</w>": 7736,
  "harzah-": 7737,
  "harzah-gard</w>": 7738,
  "حیلے</w>": 7739,
  "hiile</w>": 7740,
  "roz-e-siyah</w>": 7741,
  "فروتنی</w>": 7742,
  "farotani</w>": 7743,
  "be-basar</w>": 7744,
  "jalva-e-janana</w>": 7745,
  "todte</w>": 7746,
  "pur-dard</w>": 7747,
  "خدنگ</w>": 7748,
  "نہنگ</w>": 7749,
  "kam-e-nahang</w>": 7750,
  "khinchne</w>": 7751,
  "piyale</w>": 7752,
  "afsurda-": 7753,
  "ڈرایا</w>": 7754,
  "shahid-e-tegh-e-": 7755,
  "بوچھ": 7756,
  "dil-e-bimar</w>": 7757,
  "yak-aina</w>": 7758,
  "varta-e-": 7759,
  "uzlat-": 7760,
  "uzlat-guzin-e-": 7761,
  "daman-e-sahra</w>": 7762,
  "hama-tan-": 7763,
  "nala-ha-e-bulbul-e-": 7764,
  "رفتگان</w>": 7765,
  "raftagan-e-": 7766,
  "bos": 7767,
  "فغان</w>": 7768,
  "nishan-e-lucknow</w>": 7769,
  "ahl-e-zaban</w>": 7770,
  "tifl-e-": 7771,
  "بچپنے</w>": 7772,
  "bachpane</w>": 7773,
  "برج</w>": 7774,
  "uns</w>": 7775,
  "غافلو</w>": 7776,
  "katte</w>": 7777,
  "bad-e-bahar</w>": 7778,
  "gul-e-nargis</w>": 7779,
  "gard-o-ghubar-e-": 7780,
  "ashob-e-agahi</w>": 7781,
  "sarzad</w>": 7782,
  "fe": 7783,
  "پست</w>": 7784,
  "یکساں</w>": 7785,
  "yaksan</w>": 7786,
  "zill-e-": 7787,
  "khud-parasti</w>": 7788,
  "haae": 7789,
  "haael</w>": 7790,
  "pur-afshan</w>": 7791,
  "bosa-e-lab</w>": 7792,
  "tar-e-daman</w>": 7793,
  "سفید</w>": 7794,
  "be-hunar</w>": 7795,
  "مہینہ</w>": 7796,
  "ta-kamar</w>": 7797,
  "jam-o-subu</w>": 7798,
  "ahl-e-junun</w>": 7799,
  "ta-abad</w>": 7800,
  "رسی": 7801,
  "munkir-e-": 7802,
  "کلہ</w>": 7803,
  "tarf-e-kulah</w>": 7804,
  "vah-ri</w>": 7805,
  "burd</w>": 7806,
  "peshtar</w>": 7807,
  "umr-e-ravan</w>": 7808,
  "nava-san": 7809,
  "kahni</w>": 7810,
  "jism-e-": 7811,
  "mauj-e-sail</w>": 7812,
  "ریگ</w>": 7813,
  "lab-e-sahil</w>": 7814,
  "-manda</w>": 7815,
  "ruon</w>": 7816,
  "rukhsar-e-": 7817,
  "ضیا</w>": 7818,
  "ziya</w>": 7819,
  "پیسا</w>": 7820,
  "rast-": 7821,
  "asiya</w>": 7822,
  "zambur-e-": 7823,
  "zambur-e-asal</w>": 7824,
  "sataish-": 7825,
  "sataish-gar</w>": 7826,
  "ٹوپی</w>": 7827,
  "topi</w>": 7828,
  "kaleje</w>": 7829,
  "rag-e-har-": 7830,
  "ubal": 7831,
  "pankha</w>": 7832,
  "پھیلتا</w>": 7833,
  "ڈھلتی</w>": 7834,
  "phailta</w>": 7835,
  "dhalti</w>": 7836,
  "lapka</w>": 7837,
  "khun-e-be-gunah</w>": 7838,
  "اگلتی</w>": 7839,
  "ugalti</w>": 7840,
  "shughl</w>": 7841,
  "مرید</w>": 7842,
  "بتان</w>": 7843,
  "musalmani</w>": 7844,
  "mah-e-tamam</w>": 7845,
  "غمازی</w>": 7846,
  "ghammazi</w>": 7847,
  "hina-bandi</w>": 7848,
  "سمر": 7849,
  "سمرق": 7850,
  "samarqan": 7851,
  "khudavandi</w>": 7852,
  "mata-e-be-baha</w>": 7853,
  "اسماعی": 7854,
  "اسماعیل</w>": 7855,
  "sikhae</w>": 7856,
  "ismail</w>": 7857,
  "farzan": 7858,
  "جبر": 7859,
  "جبرئی": 7860,
  "جبرئیل</w>": 7861,
  "zubun</w>": 7862,
  "majzu": 7863,
  "andesha-ha-e-": 7864,
  "ہستیٔ</w>": 7865,
  "naqsh-e-kaf-e-": 7866,
  "pa-e-yar</w>": 7867,
  "کوئ": 7868,
  "کوئي</w>": 7869,
  "دي": 7870,
  "ء</w>": 7871,
  "نصیبی</w>": 7872,
  "nai": 7873,
  "-navazi</w>": 7874,
  "pech-o-tab-e-": 7875,
  "شاہبازی</w>": 7876,
  "سپہ</w>": 7877,
  "sipah</w>": 7878,
  "murgh</w>": 7879,
  "padshahi</w>": 7880,
  "pir-e-haram</w>": 7881,
  "kirdar-e-": 7882,
  "اسرافیل</w>": 7883,
  "israfil</w>": 7884,
  "رحیل</w>": 7885,
  "halqa-e-sukhan</w>": 7886,
  "قندی": 7887,
  "قندیل</w>": 7888,
  "qindil</w>": 7889,
  "takht-o-": 7890,
  "takht-o-taj</w>": 7891,
  "sanam-kada</w>": 7892,
  "la-ilah</w>": 7893,
  "sang-o-khisht</w>": 7894,
  "bahr-o-": 7895,
  "bahr-o-bar</w>": 7896,
  "khanqah</w>": 7897,
  "sirr-e-": 7898,
  "tabdar</w>": 7899,
  "خذ": 7900,
  "خذف</w>": 7901,
  "نوبہار</w>": 7902,
  "طائرک</w>": 7903,
  "roz-e-hisab</w>": 7904,
  "niyaz-": 7905,
  "ہوشیاری</w>": 7906,
  "hoshiyari</w>": 7907,
  "be-amal</w>": 7908,
  "پھلا</w>": 7909,
  "پھولا</w>": 7910,
  "امیدوں</w>": 7911,
  "بوٹے</w>": 7912,
  "buute</w>": 7913,
  "dard-angez</w>": 7914,
  "sarsar</w>": 7915,
  "hava-e-chaman</w>": 7916,
  "be-buniyad</w>": 7917,
  "قدسیوں</w>": 7918,
  "qudsiyon</w>": 7919,
  "ziyad</w>": 7920,
  "khud-bakhud</w>": 7921,
  "niil</w>": 7922,
  "bahr-e-be-karan</w>": 7923,
  "dil-navaz</w>": 7924,
  "pur-soz</w>": 7925,
  "اندیشۂ</w>": 7926,
  "sarvari</w>": 7927,
  "mandon</w>": 7928,
  "subh-gahi</w>": 7929,
  "tab-o-tab</w>": 7930,
  "یور": 7931,
  "یورپ</w>": 7932,
  "دستور</w>": 7933,
  "euro": 7934,
  "europe</w>": 7935,
  "شوکت</w>": 7936,
  "mai-e-nab</w>": 7937,
  "سحاب</w>": 7938,
  "buland-": 7939,
  "shigaf</w>": 7940,
  "zarb</w>": 7941,
  "ba-shuur</w>": 7942,
  "maslahat-": 7943,
  "maslahat-andesh</w>": 7944,
  "be-khatar</w>": 7945,
  "atish-e-namrud</w>": 7946,
  "معنئ</w>": 7947,
  "sahar-o-sham</w>": 7948,
  "بخشی": 7949,
  "گردان</w>": 7950,
  "zer-e-asman</w>": 7951,
  "nil-gun</w>": 7952,
  "مشتری</w>": 7953,
  "mushtari</w>": 7954,
  "جست</w>": 7955,
  "parda-dari": 7956,
  "parda-dari-ha-e-": 7957,
  "darmanda</w>": 7958,
  "mohammad</w>": 7959,
  "ترجماں</w>": 7960,
  "tarjuman</w>": 7961,
  "کوکب</w>": 7962,
  "sar-e-daman</w>": 7963,
  "میرا": 7964,
  "momin</w>": 7965,
  "تازیانہ</w>": 7966,
  "taziyana</w>": 7967,
  "rag-e-tak</w>": 7968,
  "nava-e-ashiqana</w>": 7969,
  "زرہ</w>": 7970,
  "taqlid</w>": 7971,
  "قیصر</w>": 7972,
  "کسری": 7973,
  "کسریٰ</w>": 7974,
  "qaisar-o-kis": 7975,
  "qaisar-o-kisra</w>": 7976,
  "shaikh-e-haram</w>": 7977,
  "illa</w>": 7978,
  "واویلا</w>": 7979,
  "vava": 7980,
  "vavaila</w>": 7981,
  "tah-o-bala</w>": 7982,
  "بصی": 7983,
  "بصیرت</w>": 7984,
  "خویشتن</w>": 7985,
  "khesh": 7986,
  "kheshtan</w>": 7987,
  "astan-e-": 7988,
  "الر": 7989,
  "muntazar</w>": 7990,
  "jabin-e-niyaz</w>": 7991,
  "سرود</w>": 7992,
  "sarod</w>": 7993,
  "parda-e-saz</w>": 7994,
  "aina-saz</w>": 7995,
  "banda-navaz</w>": 7996,
  "شوخیاں</w>": 7997,
  "shokhiyan</w>": 7998,
  "va-e-tamanna-e-": 7999
}